/**
  ******************************************************************************
  * @file    network_data_params.c
  * @author  AST Embedded Analytics Research Platform
  * @date    2025-12-23T19:37:11+0300
  * @brief   AI Tool Automatic Code Generator for Embedded NN computing
  ******************************************************************************
  * Copyright (c) 2025 STMicroelectronics.
  * All rights reserved.
  *
  * This software is licensed under terms that can be found in the LICENSE file
  * in the root directory of this software component.
  * If no LICENSE file comes with this software, it is provided AS-IS.
  ******************************************************************************
  */

#include "network_data_params.h"


/**  Activations Section  ****************************************************/
ai_handle g_network_activations_table[1 + 2] = {
  AI_HANDLE_PTR(AI_MAGIC_MARKER),
  AI_HANDLE_PTR(NULL),
  AI_HANDLE_PTR(AI_MAGIC_MARKER),
};




/**  Weights Section  ********************************************************/
AI_ALIGNED(32)
const ai_u64 s_network_weights_array_u64[6255] = {
  0x3e6937643cb798a6U, 0xbd62eed1bc5daf8eU, 0x3d81fc5fbce94cd5U, 0xbdff0c573e7c2f29U,
  0xbd788a85be597bb8U, 0xbecaf8bc3e5d709eU, 0x3e0424eb3e74e0cdU, 0x3e4d88823e922459U,
  0xbe439c413e5ddf17U, 0xbbe11d2a3dd7e39eU, 0x3cf51cc43df7dfdeU, 0xbeb292fbbed1fd8eU,
  0xbcc72906ba9d3704U, 0xbe2463153ea42e8fU, 0x3e81ed38bd80921fU, 0xbdb487513ea6de60U,
  0xbd0e263dbe3f5ed2U, 0xbd1ed18bbe51a451U, 0x3deadaf93dbc7eaaU, 0xbe18909b3e31b6edU,
  0x3ed281513db211a4U, 0xbe5c5b0fbcfc46adU, 0x3b6948943dc8e99fU, 0xbe74600a3eaf2412U,
  0x3dcebd713e895a0eU, 0xbca64b6ebe3b74b3U, 0x3e9d5c3ebc86e442U, 0xbe0d06f03ebc1deeU,
  0x3e9f769d3dc29030U, 0x3e1a13a03cf3d91fU, 0x3e372d773dfa033aU, 0xbed164b0be14dc39U,
  0xbddaa6f03df83b68U, 0x3df9f4743e0453c2U, 0x3e7196c03dd041ccU, 0xbdbc4676be7d1634U,
  0x3d1ae1773ef5e4b1U, 0xbe9cbbac3e269710U, 0xbe9ff6133eedaaa1U, 0x3e261aa83c49037bU,
  0xbe600b073da4df10U, 0xbe5c89273ddf82aeU, 0xbdd65562bec23a14U, 0xbe927e063dd5abdeU,
  0x3e128c823ef31fdcU, 0x3e7b5aedbd5c3746U, 0x3db1aec0be869cb4U, 0xbe00ddf3bd45feb1U,
  0x3da06eed3dab72bdU, 0xbdac744c3d30b90eU, 0x3e99020bbedba6faU, 0x3dfdc9f6be498fb8U,
  0xbe45386abd9e7ba7U, 0x3e1d9882be3eaa92U, 0xbe2b796abe7b8cbaU, 0xbe99272c3dcb8e5bU,
  0x3ea4dab8beaf0324U, 0xbe29596c3ec6c8d8U, 0x3cc3ec11be73fd19U, 0xbe7a871ebe9d7556U,
  0xbcadc4c63e7ac527U, 0x3e3a98b43e1e8c7cU, 0xbdcca6d43d014f41U, 0xbe900469be85a60bU,
  0xbf0659bb3e29abdaU, 0x3d4ccb503e0d4495U, 0x3dc55b76be23c804U, 0x3e90a7c13d296669U,
  0x3efeb4c0bde60393U, 0x3dde5c5abdb23facU, 0xbe5749283d99f2e6U, 0xbdf823d83e13dc86U,
  0xbbaac5e9be56f372U, 0x3e58c7383e06d5acU, 0x3d2d3491be551f9dU, 0xbe83e24d3d85a04dU,
  0xbe885405bda748e3U, 0x3eb8e4d63e1a02efU, 0x3d3737c9bdee698aU, 0xbe8030f13bc5b76bU,
  0x3dcc792f3e9cb98dU, 0xbe5c558cbddd6964U, 0xbe3f89113ec4d453U, 0x3d04f1783eb6e730U,
  0x3e24a5323e2b344eU, 0x3e1b56963c2fda47U, 0xbca5874ebe1bea87U, 0xbdaa639a3d8c8f72U,
  0x3e0383bdbebdc6a4U, 0xbe16216c3f0c020fU, 0x3f1e9614be6695f4U, 0x3de9fd303e628b99U,
  0x3c7d3049bdb78c1cU, 0x3e2c2153be2c58c9U, 0x3db04858be1ae569U, 0x3c4278a53e4301a8U,
  0xbebf73f23d2b8270U, 0x3de1df043d20ea21U, 0x3e32016ebeb9d95cU, 0x3e82c9f0be438025U,
  0x3c436d773e420853U, 0xbd26d0873c4204f0U, 0x3caef071be3c1860U, 0xbc8e0dee3eb4273bU,
  0x3c74fdba3e477110U, 0xbd59328cbd450ffbU, 0x3ddffd853d9bb310U, 0xbe7f39c53d4ab5d3U,
  0xbd4b75313eb78625U, 0x3eced58b3db9ce87U, 0xbda125cebe34d324U, 0x3d20d8173bcb8031U,
  0x3db9cae8bdc8337eU, 0xbdf412583e667015U, 0x3e255bdabe20e612U, 0x3e5075423ee2e869U,
  0x3dc40f253e327725U, 0xbe56e9afbe57a152U, 0x3e1defc13e2901f6U, 0xbcde0ea1bbfab37aU,
  0x3e7a08ca3e48ce8aU, 0xbd5c6dfcbdc81efeU, 0xbd993e1e3e1a9456U, 0xbd382952be08d5afU,
  0x3e09702ebe6c868fU, 0x3dce4efa3cbceed8U, 0x3c934f72bdd2d976U, 0xbde97b1fbe912c04U,
  0x3e1282163c3ade1cU, 0x3ea4fc8b3cee2218U, 0x3e82bc29bdde89d6U, 0xbdbc4c053d87db10U,
  0x3e3b9ab93e6337c3U, 0xbeb60b6fbe09bc97U, 0x3eb147ac3cb321d9U, 0x3e4042633d442d7aU,
  0x3db55d903e71a7dbU, 0x3e32eade3cb7c188U, 0xbe24286c3e052d82U, 0xbe2862c7be559a3bU,
  0xbec0a857bee2fa4dU, 0xbea8c46ebc915087U, 0x3c542f53be4479c5U, 0xbcc579163e34e2ecU,
  0xbdd1cc4bbd347901U, 0x3d9cb3443dc57b42U, 0xbcd72a1d3ea3a0b1U, 0xbeba04c43e549255U,
  0x3e395c643e2c65ebU, 0xbdb8df80bedf5dcfU, 0xbb3242fabe0a904dU, 0x3dea1a11bd5810c1U,
  0x3ddfd045be6213c9U, 0x3d7c8fe33d873dbeU, 0xbe85c24f3d16c1fcU, 0x3d31436abe8184ceU,
  0x3d9764c93be595f0U, 0x3e579e5d3d1c598aU, 0x3e1ccd3f3c80170cU, 0x3e46b45e3e04373cU,
  0x3e0bb5363dcd7c61U, 0x3dda04f63e1d3dfbU, 0xbcd1296e3e2a35cfU, 0x3d16419e3d0f6639U,
  0x3ea2f1823e88f46cU, 0x3e9fb20fbedb6535U, 0xbebf9962be38ff77U, 0xbe84dd403e0fc702U,
  0x3bf556debe11559dU, 0x3e95ee87bdbcbc97U, 0x3be75db23d9fbbcfU, 0x3ea46db13e8d8db3U,
  0xbe4fdd483d36f615U, 0xbdceed6ebe0cd56bU, 0x3e3ba6763cb9546bU, 0xbcd8de54bebc9b22U,
  0xbe7349bf3d9bab4fU, 0x3d12764c3e32f283U, 0xbe46c4aebcb901a9U, 0xbcc837703e421156U,
  0xbdc33df3be073761U, 0x3e98f5f4bef1c67cU, 0x3d4a782ebe1a38caU, 0x3bfe48033e6cee5eU,
  0xbd1809b1bd7827ffU, 0x3dae17af3e846588U, 0xbe5888ebbd308af2U, 0xbe6ae0f03ef49ad2U,
  0x3d4bc04dbe7619f3U, 0xbd9384e3bd968598U, 0xbe06bc673e661300U, 0x3ed7060cbe89c0bdU,
  0x3dccbd9ebec29367U, 0x3ee23f1d3defa197U, 0xbe7b5e423da4c9c9U, 0x3e15a025bdaa1bbdU,
  0xbe5782f4bde7d226U, 0x3e961a653d44097fU, 0xbd2059933ea00d7bU, 0x3e7cf8b73d9ef311U,
  0x3e8cba2cbe71a919U, 0xbdb0fc433f072befU, 0x3e55cce1baf5c22aU, 0xbe239a153e66455aU,
  0xbec2b963be20f223U, 0xbdecf9d13dd33c01U, 0x3ec948e73e1f9c3aU, 0xbe121aa03e5ae5b8U,
  0xbdba95e9bd63595fU, 0xbc852039be91e9d7U, 0xbdb7d1063e0244a2U, 0x3e88104dbe841428U,
  0xbd4cf9d2bd53e8a7U, 0x3ea061a33e668a87U, 0x3d9ce80db91802c8U, 0x3dc23e8f3b812837U,
  0x3e224d04be8773efU, 0xbe3e94c2be56dff3U, 0x3de1a8043e0ed8b2U, 0xbcb724113dfa0a1eU,
  0xbea807db3e48d5b3U, 0xbd66241cbda0f704U, 0x3e060bd9be78fa53U, 0x3e3acb6dbe7026c0U,
  0xbe88a0df3e105205U, 0xbe4fbcf63e9ec881U, 0x3ec09cf7bea9d80aU, 0xbce20aef3e5c9406U,
  0xbe1a8e61be2afa1dU, 0x3dce66eebd28620fU, 0x3d42162f3e8b1bfbU, 0xbd9b269a3e0d07c0U,
  0xbd4a24f6be497ffcU, 0xbdfbf038bdbd0f8eU, 0xbe844bc4bcbb47ffU, 0xbe3f912e3de961b5U,
  0xbec16b9e3dc4f29dU, 0x3d653816bd7d9dd1U, 0x3d92840e3e5a14ebU, 0xbd62f6fe3e575ffaU,
  0x3de6a242be1a37eaU, 0xbdb2decebe3df1f0U, 0x3d2d1b9f3e6c13c1U, 0xbdb9bbe53e37db95U,
  0x3eba2b7a3e98c19eU, 0x3cd94a32bbb985d5U, 0x3e618496be571af1U, 0x3d6219653d3d6de1U,
  0xb9749591be0c8873U, 0xbe153600be3d5ccaU, 0x3df307efbdd92ca7U, 0xbdf57a49be0dd80aU,
  0x3ec77c0b3f12280bU, 0xbe2df39a3b4cf3d5U, 0x3d0fc0ecbdf34104U, 0x3e2c4913be4da84bU,
  0x3da5f7193de5da4fU, 0x3eaf5635bd00fadeU, 0x3de009aabe545a7dU, 0x3e3be3203c0505cfU,
  0xbe6d2d273e06d122U, 0xbc840bc4bd9d2aa9U, 0xbe2b76bb3e6903f1U, 0xbead9e0abcd5ec81U,
  0xbe8d6c493eb849adU, 0xbe6ba2e73ccc5437U, 0x3dc302413e4cb3dfU, 0x3e65db88bd4d50beU,
  0xbdd5755abe1cba4dU, 0x3d13c7093d1eb0d5U, 0x3cccedb9be75388cU, 0xbeb57f98be2a19e4U,
  0x3df8ac993e2ab1adU, 0xbe5d2de33e84e7a2U, 0x3de025ab3d8053f0U, 0x3edc780c3e2d42e3U,
  0xbea890bc3e19b8f3U, 0x3eb8ba64be6537ecU, 0xbd083a92be087d00U, 0x3e00ce80be585f72U,
  0x3de3cd293dd1116eU, 0xbe281b6cbe8af519U, 0x3dc155953d611fddU, 0x3d948196be37fa12U,
  0x3dc5429bbe78b4f3U, 0x3eccc7ff3e9539d3U, 0x3e4235293ce7ca51U, 0xbda1b09ebe116d5dU,
  0xbec0e2463e5c149dU, 0xbd4d51b33edf1aa1U, 0x3e5aa79d3d0dec4bU, 0xbe0878443e9989bcU,
  0x3e5d5954be901bd3U, 0xbe14e6f63d4df8c7U, 0x3e58f5093c54a03eU, 0xbe69e8a93ea61dabU,
  0x3df9c2c8be80003dU, 0x3c638ba7bbc94a2cU, 0xbe14808e3e2eca38U, 0xbe84e98f3e67bf7dU,
  0xbdafec89be5ccbaeU, 0xbe641dd03e4d8fb2U, 0x3e33cb68be5b16eaU, 0x3e54e239bd891cedU,
  0x3d8965803e127282U, 0x3e115c71be3acc47U, 0x3ca7404f3e1b7635U, 0xbe07edf6be7b6b7bU,
  0x3ea906713e6b9703U, 0x3d954f51bad2d19cU, 0xbd34e96abd563b37U, 0xbd8beb00be3ac864U,
  0xbe021f04bdb8e221U, 0x3c803b6d3c233852U, 0xbe2dabe7bdf3f3ddU, 0xbd9e91cf3e54180cU,
  0x3e91fe9b3ee32f70U, 0xbe74f533bd2c5fefU, 0xbc1d0dc5be41b49aU, 0x3dfe9e5ebd91c49aU,
  0xbdb16de1bdf10a77U, 0xbe7a4c343e3c75a5U, 0xbeb055813e1a85edU, 0xbdc60a433d6dcde3U,
  0xbd5c7667bd7365f2U, 0xbe21c7ae3e0cadffU, 0x3e948fb2bd7f5c0fU, 0xbe93c22abe8c6db1U,
  0x3e97b9c7beb59bc1U, 0xbd790ae03e75bc0aU, 0xbef37664bdc04eadU, 0x3e9fc6ea3e993e9eU,
  0x3e08fd42bbe99be6U, 0xbe19acf1bd7bcf0fU, 0x3e9362d9be065cbaU, 0x3e9197c6bdde4a44U,
  0xbcddf43f3e8d90c4U, 0xbe94a6a23ef1825bU, 0x3e2f0bd0be2cbd78U, 0xbdd2e6ec3db830aaU,
  0xbe0c1db83e40671fU, 0x3eadbb563e909679U, 0x3e8d519b3e1361c0U, 0xbe59dc293d4e91aeU,
  0xbde017c8be185064U, 0x3e144fa8be3fae30U, 0xbd2d02a4be2d582fU, 0xbeb2f4163efcdb5aU,
  0xbea55d62bde8706fU, 0xbc6dc3073ca325bcU, 0xbe8e3bfcbc5d0020U, 0xbe9db2c03db2e44dU,
  0x3de857dbbe42cf5cU, 0x3c467fd4be16e1ecU, 0xbe9062dc3d71289cU, 0xbe0290cdbe12859dU,
  0x3e9ffde6be995d77U, 0x3d742365bd89c990U, 0xbe41dc62bdbc9349U, 0xbe106f393e687172U,
  0xbebc82363edbc3adU, 0x3d985e083d64dc8eU, 0xbdc3398f3d78c5b6U, 0x3e5816c7bc60f845U,
  0xbe318bb33e1441f9U, 0xbdfd590d3e3b90ecU, 0x3e8f9f36be009abfU, 0x3e4157babdd7542cU,
  0xbeb54ca4becb3bedU, 0x3ef8ee013e945548U, 0xbd936360bc636e46U, 0xbcced8bfbe861967U,
  0x3e9293043e5d342bU, 0x3d3e6fe8bce84a11U, 0xbeca14fd3e45eb20U, 0x3db4a1623e808e0cU,
  0x3e1243273d9b9ebdU, 0xbc59d332bd954774U, 0xbe092231bdcc9170U, 0x3e64ba743d8fe0faU,
  0x3da24388bd8dfe2fU, 0xbe90f6583d7d4a7dU, 0x3e82a83f3eb68bd0U, 0xbd1ab6ddbe843855U,
  0xbe28839a3d42b316U, 0x3e5d003cbdea207dU, 0xbe61a18f3d9a1cbaU, 0x3e8f9a5fbe329a9cU,
  0x3e4f0d4ebea3083dU, 0xbdb315e83e9cb096U, 0xbd638c9d3d7cb38fU, 0xbe083b1c3e98b1baU,
  0x3eb44f49be1aad0cU, 0xbe4043413eb18905U, 0xbe33b654be1511b0U, 0xbe1cb92a3cd764a1U,
  0xbd89d7323eed739dU, 0xbe12336d3ce7a378U, 0x3e9371543d1c252fU, 0xbec8b1923ce3a4e7U,
  0x3e933d4abe790c02U, 0x3db94c883db76513U, 0xbe29bd653ed22473U, 0x3e867691be795879U,
  0x3e1161ae3ea295f1U, 0xbe876d11bd2d6623U, 0x3d91569ebdac453fU, 0x3df8e19ebecc34c3U,
  0x3e2a48c9bd9e0f1eU, 0x3e1cf5c13e4f2246U, 0xbe17e5d93e0ad2d3U, 0x3e8fd65a3d7e5f17U,
  0x3d40d2a73e1ed9cfU, 0x3d40c670be8cab79U, 0x3d29ce28bd75735dU, 0x3e8360b8bdf1198dU,
  0xbe171bfd3dadcf73U, 0xbe713aed3e8376edU, 0xbe636fe13dbfc049U, 0xbe4850d53cc9fe30U,
  0x3f190415bdd717cdU, 0xbea662213e813519U, 0x3e8122af3e574619U, 0xbe1c30e53e4a01e6U,
  0x3e1abb053dc65b0aU, 0xbe0e15c1bdee7a1cU, 0xbe2bd0a6be880e50U, 0x3d41e81dbe2ae954U,
  0xbcabbba6bda7424eU, 0x3e0b50afbdfb40dbU, 0xbd67d131beb13bdaU, 0x3e86d94c3e99dd72U,
  0x3eccc8a93dfaa042U, 0x3e5694b3bdb95e70U, 0x3f12f51fbef3abfbU, 0x3d7eb43dbf101329U,
  0x3c0334b33dc92558U, 0xbe1599fb3d273febU, 0xbea97c0c3f05fdd3U, 0x3dcee7173f297677U,
  0xbeb6ab403e0d7036U, 0xbe134d57bc444bf3U, 0x3dd1d561be2f8d7dU, 0x3d39fff53ee9a0e2U,
  0x3e8035a3bd313466U, 0xbcb73cb6be27c877U, 0x3f030e613dbdbf9dU, 0x3ee66beabe5b1cf3U,
  0x3e57041d3e2f3bcaU, 0xbe17976bbc3cba4aU, 0xbc4f5aed3cf9cdd3U, 0x3e2c70afbc8e30a2U,
  0x3dbee42dbe58f8d5U, 0xbe4e070d3e85a747U, 0x3da3afe93dadd011U, 0x3ded56cabd80c3e3U,
  0x3d7ad42fbe083f95U, 0xbef7aeebbdf5586bU, 0x3ec7e9623ce1ce85U, 0x3e2f51583eddfb44U,
  0x3e25018a3ea8866aU, 0x3d30354ebca8269cU, 0xbd855be43cecebc8U, 0x3cd021dcbdc0dcbdU,
  0x3db45c40be20d699U, 0xbe3e663dbe7570aeU, 0x3e2bc2e53e1c9255U, 0x3db346d93e9329b1U,
  0x3e9eb2cabd057cbaU, 0x3df02a2d3e26e49eU, 0xbd5fe5233d097f99U, 0xbea188183ec1b3d2U,
  0xbe589bebbe2d035aU, 0x3ee9a8b2be8fcd02U, 0xbdbfdbcebd421ea8U, 0x3c8eef9abe32a3c5U,
  0x3d36cef7be1aaed0U, 0x3e483687bda1216dU, 0x3eaea237be2f31a8U, 0xbd8ea0afbd7f4112U,
  0x3ed1c8993ed1a67fU, 0x3d88aae63da61aeaU, 0x3e3afb3f3cbd3aa4U, 0xbe8b8f52be24878fU,
  0x3db1c6b3be9d5701U, 0xbd48a4dbbe2244e3U, 0x3e145ceabeaaab49U, 0x3d344efd3e3762daU,
  0xbddc0f2d3e0bdfa6U, 0x3e76c1f3be3f89b7U, 0x3e383981be2446c7U, 0x3bca057d3e591a75U,
  0xbe83b3c6bea75df7U, 0x3e651880bdd2b617U, 0xbe44f7eb3e2cc3c8U, 0xbe34230dbdea1e4fU,
  0xbb5265fcbe1a6a85U, 0x3e2cd7a1bc2d28d3U, 0x3ebc5cc5bc8682b2U, 0xbe9240953e4a6472U,
  0xbd746f8a3dfe56dcU, 0x3e346165bcc7b418U, 0xbe18795fbd1cdaf0U, 0xbcffa4e03acc0497U,
  0x3f3108903ea722dfU, 0x3dee0c28be83661cU, 0x3de8a95d3d376b9bU, 0x3e40473bbdf242adU,
  0x3e8dc6c2be2b258aU, 0x3db504f4be178590U, 0xbe90517abdccc237U, 0x3ea3711abe413763U,
  0xbdcfce3dbe3d7e73U, 0xbdef0ef8bcae2621U, 0x3dca502e3db0d424U, 0xbcb17cbebd16f527U,
  0xbe16fc543e557463U, 0x3ed790b83d9e323dU, 0xbe0bb3b9bebc6723U, 0xbdcb20df3eb687e0U,
  0x3dd525c1be0d85adU, 0x3dbdcf55bde81d2bU, 0x3d1dbc583a6a6d2bU, 0xbca4a4b93d844396U,
  0x3e6dcfa7bf173a69U, 0x3e1ae103be7ed75dU, 0xbdaab7a13ec125b6U, 0x3e3301fabe452c9aU,
  0xbdfaa8acbd5f99b8U, 0x3cb0fdbdbe4425f8U, 0x3e1f45f8be1761c5U, 0x3d47081c3eb3d2c2U,
  0x3e6beef4be826d2eU, 0xbe06bcda3df19a43U, 0xbe479f1d3d952e71U, 0xbe847ca6bdceb086U,
  0x3e62d2b53cdf1881U, 0xbc95c167bdf766eeU, 0x3eb27764be947282U, 0x3dcb75a13e40a9f4U,
  0xbd67e8e1be149767U, 0xbe52ff9d3e322d17U, 0x3e20bd103da140dbU, 0xbece1aa8be0bef8bU,
  0xbdfe645c3e99ff0eU, 0xbe081390bd135825U, 0xbc03a38a3e7813c7U, 0xbcc354393d1a3461U,
  0x3da1a2e03da68897U, 0x3df57a883d84c6b4U, 0x3e9d9f933ca85802U, 0x3df3d9c23e116366U,
  0xbb331b013d04dd8aU, 0xbd84ff1f3e430635U, 0xbddd85f83dce60f3U, 0x3df816bb3da90af2U,
  0x3df20bd3be7bf241U, 0x3c07bbc3be35d671U, 0x3e886e9cbe3fc05aU, 0xbc9971193d6bd63bU,
  0xbe3a568dbe95abe3U, 0x3e13451b3df90504U, 0xbe3b9bec3e3b4391U, 0xbe9c377e3e43a7c3U,
  0xbdf4ed653eda940eU, 0x3cbd48d93e8a3b78U, 0xbe28f37ebd89d2a7U, 0x3e7bd1e83e849262U,
  0xbdeec9cdbdc09327U, 0x3e9bfe643e09a236U, 0x3d3ba6b3bde7bc1cU, 0xbeafb6b23e92956bU,
  0x3c02971c3e0b3381U, 0xbc9e7f013db0b7eaU, 0x3daf23fc3c57263dU, 0xbe4710163dbf8e5bU,
  0xbf16c9e8be274a20U, 0x3dc68412be6587e4U, 0x3e89a9d33e5e225bU, 0x3db889bcbe29b0afU,
  0xbe5ff213bd4f7857U, 0xbdba7e7a3e35847dU, 0xbb8468a83caeb91aU, 0x3d835a183e4c230cU,
  0xbf0b7d5a3afacd48U, 0xbe1aa77a3e1457d1U, 0x3da7a2fa3c4fb0b8U, 0xbdd05e7a3e74ffcfU,
  0xbe2a42c43db5c7f0U, 0xbec8484fbe0b2ce3U, 0x3eaa0d41be8a0d02U, 0xbd55ce9ebddeec31U,
  0x3e2d73b4be6df8ccU, 0xbe6445203dce765aU, 0x3d14429fbe1892efU, 0xbe0fa4a43d0a2f84U,
  0x3ded27cbbeae12b8U, 0xbd8ce3d1bebf5d51U, 0xbddd8d15be10cefaU, 0x3d79716dbdd03a93U,
  0xbe50f7623df135a9U, 0x3e477d81bd4e5113U, 0x3ea5af813e10c474U, 0xbe8e9ccd3e85cfe6U,
  0xbd6e5e493da63c25U, 0xbe767ece3e00fce6U, 0x3dff8d233e5f6c04U, 0x3da7dbf5bea85c35U,
  0x3e7bb8f0be8bc9b0U, 0x3d6175da3d5dd9adU, 0xbe75baedbe1e4025U, 0x3d784d923def9c8bU,
  0x3e5177d9be878c93U, 0x3da6de6cbd4ce27bU, 0xbe69e709be0e19b5U, 0xbeb3a50abdf7932eU,
  0xbe39e0113ea06c67U, 0x3da373b63d2d3943U, 0x3c80db72bd64283dU, 0xbe3618b7be3aa159U,
  0x3d08c112be176d5dU, 0x3ec436173e00a6acU, 0xbe02dda1be21af90U, 0x3b9077fb3e88adebU,
  0x3e00de78be0eda3aU, 0x3e97e0babe94c51cU, 0x3e7c9f6abe5ac38fU, 0x3ca10b2f3e918861U,
  0x3e8175693f1adebfU, 0x3e8ea6633d7c0d50U, 0xbda4ddfd3e966d7fU, 0xbdc25ba63e091648U,
  0xbdab5fc33e536d91U, 0xbe436f93be092665U, 0xbec6ae89bb588403U, 0xbdb651623c5ab615U,
  0x3f11f1523dd3f578U, 0x3e5e663b3e7f54a8U, 0xbdc82fefbdc20a37U, 0x3d35e33d3ac162efU,
  0x3c966a453ec84079U, 0x3d2455f93ed2ee62U, 0xbe36588fbe046dcaU, 0x3df32faebe3a5dddU,
  0xbe59c504bc9dc3c2U, 0xbe42d140bcb22018U, 0x3dc3ebbcbeb6bce4U, 0x3e4811f5be84c325U,
  0xbdf94c293dcbbfecU, 0x3e8778713e033c0aU, 0x3e16bf75bcb07dddU, 0xbe770bd7bb9fdf0aU,
  0x3d3e5a6e3df35146U, 0x3d2ff1293d246fddU, 0xbe11e4633dd4fc35U, 0xbe1ce7dc3d583407U,
  0xbcd31c14bd95d327U, 0x3dbbfcacbc5d6b53U, 0xbd154a0bbe1534aaU, 0x3c9ce845be59b179U,
  0x3e07bc1dbe27ac0cU, 0x3d9942fdbb2f7d94U, 0x3dddc22d3d1f51e7U, 0x3df1ff643ec57871U,
  0x3e91cc8e3dd3e681U, 0xbe4ba669be7cb103U, 0x3da2c305bdcd0f33U, 0xbe527a64bddf2b8bU,
  0x3d54a813be4972f4U, 0xbe8179c03dcc700bU, 0x3df836c8bd81d01fU, 0xbe73a8b7bdbc4446U,
  0xbbaacf233c7a6f29U, 0xbe338ed33dce6b25U, 0xbe163226bd9858fcU, 0xbdc1781abda96437U,
  0xbe63a3efbda73395U, 0x3d73364abe4f4cd9U, 0x3e1b6c0e3d26a242U, 0xbd8aa66fbe0ab78fU,
  0x3e46f9e43d4a816bU, 0xbc52b306be8f8c29U, 0xbddab874bbc78379U, 0x3e03f69cbdf6a487U,
  0xbc1376cabe5c5e53U, 0x3d165a46bdae958bU, 0xbe4e8e0d3e850cb9U, 0x3deb83293d90d5b7U,
  0x3c30c9a23af2db5cU, 0xbe5874063e8b4a5eU, 0x3c56a0e2bd2538d1U, 0x3da0df09bdaa4e04U,
  0xbb80ebc1bd2ae480U, 0x3e0a7624bd852a90U, 0xbd252f463e5faff9U, 0x3e3aff563d36fccdU,
  0x3ebc13ffbda0c137U, 0xbd40d75ebc913dd6U, 0xbe01aee93e312eecU, 0xba14149e3dc10c8eU,
  0xbd4397a93da87f0cU, 0x3df8c8f0bdbd092fU, 0xbe148c18bd2f744fU, 0x3d9751bbbdb894eeU,
  0xbd55e5cd3ce9c49eU, 0xbe45396b3e204db8U, 0xbe48950e3d9f8381U, 0x3cefb1833dd9f5d2U,
  0x3ddfc3f6bde80413U, 0xbd24a28ebe256423U, 0xbe1058173d7b438dU, 0xbd8dc9edbddcc5f0U,
  0x3d54afedbddd92cdU, 0xbd83a042bde7cf7aU, 0x3e021768bdd69a5bU, 0x3df8b834be4c366aU,
  0x3db07e303d80b7d3U, 0x3ddda317bc208b48U, 0x3df3327c3c3561d3U, 0xbe2b5bb8be2bb4dfU,
  0xbdd339d03db51c72U, 0x3d2faae2be1fde13U, 0x3c6bf107bdc099adU, 0x3d1131df3d3b07cdU,
  0xbc8c027bbde0d123U, 0x3e027320bd16ba1cU, 0xbe39304ebda70977U, 0xbe25f924be2ec784U,
  0xbc4609a73d8cdcdbU, 0x3d4d015ebe26f2b3U, 0x3d6b78d9be3401d2U, 0xbe0e89d83d0472ceU,
  0xbe017ef9be07ebbdU, 0xbe2326773dbbfee9U, 0x3b94819dbe420733U, 0xbd60ce3ebdfcd6c5U,
  0xbd9630a63baa7ea0U, 0xbd99dbc7be16033cU, 0xbc87bfc7be2039b0U, 0xbd60021fbdfa0a57U,
  0xbcc979003dbb3e80U, 0x3ded53be3dc31665U, 0xbe345fbbbd889891U, 0x3dc766e9bdb658c9U,
  0x3e077e61bd1add99U, 0x3dc2a2663d06a674U, 0xbd559804bb01673aU, 0xbe2f81f1bdef52fbU,
  0xbe3b07703dfd2c8fU, 0xbe448567bb6ef503U, 0x3e0686b5bc87cc30U, 0xbeb118aebc52b7e2U,
  0x3eb6f0f6be077680U, 0x3dfb1bb83e47b772U, 0x3d82d53abd1aff29U, 0x3c6292c13cbbe502U,
  0xbd47cb97be084ff5U, 0x3da629793e3da013U, 0xbed0d4f1bda8825dU, 0x3e3255fabe24cbd0U,
  0x3d48dfe1be416b69U, 0x3e35cca5be6c7b00U, 0x3d240c003d52b3d4U, 0x3e4d99afbe07ae99U,
  0xbd455d53be180465U, 0x3e7aa0c7be6645bcU, 0x3def5cf43e036b6eU, 0xbdd08aa63dee15e9U,
  0xbe60b3f73deb7b8bU, 0x3d801c533e1f41d0U, 0xbe8facc53ead69aeU, 0xbc14f54bbd31aed0U,
  0xbe5dc849beab9993U, 0xbe243cf93da6321fU, 0xbdd9ec473dffb509U, 0xbe8980713db8a480U,
  0xbe811fdcbdd5725dU, 0xbdef9087be1872b8U, 0x3aa83d96bca6f06dU, 0x3d83c9fd3ab313b9U,
  0xbd3e67a9bdf6d78aU, 0x3e382b17be93b4a7U, 0x3e234b243d06b9ccU, 0xbdec12b2beae0a73U,
  0x3db082713e607307U, 0xbd9a97efbca3f7ecU, 0x3d6a1bbfbe11b08fU, 0x3de3aa9c3ed61626U,
  0x3e874aa7bcb26959U, 0x3e220a25bdb1c1d2U, 0xbe06d425be72ea06U, 0xbd13919e3e33f9fcU,
  0x3d6f1f3e3da82062U, 0xbe88e30e3e2b82ffU, 0x3c7074933dc1e359U, 0x3e1378fdbd843715U,
  0x3e19df343d9ce1aeU, 0x3c887f113e532835U, 0x3dedea8e3d653090U, 0x3d95135ebc6b00feU,
  0x3ebec481be470e44U, 0x3e00204dbd1ce0e6U, 0xbc6fb4c53e5ce1eaU, 0xbe3e43fdbc2e5dbbU,
  0xbd2ae931be2eb7f6U, 0xbd93c0c2bccfe269U, 0xbd3ea4213d199607U, 0x3e61e7e23dc97948U,
  0x3b2f360e3e1a6384U, 0xbcc04077bdaf89f5U, 0x3df0797e3a6cad86U, 0xbc75b4163e4062abU,
  0x3c8edea43d16adf0U, 0xbeb089113d780fa6U, 0xbd2e07f9bd50cb59U, 0xbbf38ecb3dbd76f2U,
  0x3e1a73d1be7cbcd6U, 0xbe0330a5bdf99f21U, 0xbe5f9ce4bcb2b819U, 0x3db1bef1bddbd9a3U,
  0x3d343be33d8d05c3U, 0x3e371bf13b96b16dU, 0xbe1037aabd189e5fU, 0xbdf51782ba83c54cU,
  0xbe16b6d7be3b69b4U, 0x3e608a3b3d1f8b62U, 0x3d2c93debda3c3c8U, 0xbe37c9b0be5978efU,
  0x3d3488543e671bcdU, 0x3dac4e6bbe2432bdU, 0xbf01bb603dac7a78U, 0xbe0b41163d870032U,
  0xbd535f3c3d7f93abU, 0x3c4642b5be688a83U, 0x3d68f4b7bebb139cU, 0xbd8ad4d73d7ea306U,
  0x3dfdde683d9bd9cbU, 0x3dfb5e433d498683U, 0x3e21849cbb79494cU, 0x3c43afe3bd03ab3eU,
  0x3a8969d9be57efbeU, 0xbdebbea5bd405cf1U, 0x3d11241abcc7b17fU, 0x3e1b9abb3dcf2b49U,
  0x3dabf5cd3dd2f634U, 0xbd9e0a993de3a93cU, 0xbe8e586f3d26a52aU, 0x3e34b5903dd8710cU,
  0xbdf46222bc304467U, 0x3d8876e03dab000fU, 0x3dd49819be163896U, 0xbc221b52be7e2c89U,
  0x3d7397093ebd0d59U, 0x3d241d33be245960U, 0x3c0b6f0b3e945b34U, 0xbda2f5ed3e38690eU,
  0xbea935afbcf84eddU, 0xbe0386463e2bbe46U, 0x3d3804c93d863523U, 0x3d92eec33c2dc610U,
  0x3e4e4c32be606b2cU, 0x3d1558e53d70ae11U, 0x3e2808e83d9c6b3cU, 0x3df1d2df3de0ccb3U,
  0x3eac43c83e2e394aU, 0xbe9f2469bd37615aU, 0xbb1684f9be0bf745U, 0xbc3867e73d669214U,
  0xbd6e930a3e055e91U, 0xbd9ab91abe482140U, 0x3d3fecc1bd013e29U, 0xbd2dfa96be9575e6U,
  0xbde450b13d52b3dfU, 0xbb8439373c5102acU, 0x3e2b47003e50110eU, 0xbd62f2bd3cace501U,
  0xbda2c1943d32dc81U, 0xbe45c009be5b4937U, 0x3e8ddfad3e4f3857U, 0x3dfca5a6be10e372U,
  0x3bd228fb3e307c70U, 0xbc1a4bd9be1cd630U, 0xbe02a2583dcc494fU, 0x3ed52a47bcfc1ca5U,
  0x3cba4e26bd8d9b51U, 0x3dd3e2e8be2aa27cU, 0xbe350d3f3da017d2U, 0x3dacae413e766fe8U,
  0x3e13152a3e1ed2bcU, 0xbe1a70aa3e655e36U, 0x3e30e8393cd2beefU, 0x3e054bde3db972a1U,
  0xbdf1c0e33df47363U, 0x3ce87dfc3d5b8507U, 0xbe2935eabdbdb65aU, 0x3daeaa9ebe0b80bbU,
  0x3df3d132bc96ada6U, 0x3d2b1511bcc44716U, 0x3c8ac8413e3f8f0fU, 0x3da4fdeb3e109ccaU,
  0x3e460c103e2351d5U, 0xbd63db8a3e8f9281U, 0xbd7805d23e387fbfU, 0x3df61fefbd9cbef8U,
  0xbe1f3b623ddf5559U, 0x3dbcff80bd64b099U, 0x3c0feed9bd131c4eU, 0x3da481f83e0e5200U,
  0xbc6477fe3e7b4c62U, 0x3ea12e2c3e50cf1bU, 0x3eaf55993b832142U, 0xbd088ad9bcb003a6U,
  0xbe9e8d933c39d350U, 0xbdb8233b3ea07af1U, 0xbd120f6a3df6c605U, 0xbdda3999bcf2070dU,
  0x3e1342a2be8f438fU, 0x3d7ee059befbffc0U, 0x3e326a323c9338bdU, 0xbb99101bbd82025bU,
  0x3da4572e3e53c790U, 0xbda5c3703d576a44U, 0x3e441bebbe7afa57U, 0x3d6481553c0e8b9eU,
  0x3d6df020be3c6d93U, 0x3dee331cbde7c203U, 0x3e5ebf173da77bccU, 0x3d54495ebe3d8ab5U,
  0x3ecafd7e3d72d0c4U, 0xbdf56d9f3d84d647U, 0xbe07b0633d8b8707U, 0x3e29ee20bde69cdfU,
  0x3e228bdebe0c7d9cU, 0x3da9254e3cb7c8a7U, 0x3d84ab1ebc991ba1U, 0x3c809acabedaf184U,
  0xbe0cc605be590f22U, 0x3dceb73c3dcec21cU, 0xbd021fa03d0a3dedU, 0x3e0ab946bdffe672U,
  0xbc3c5de5be2ef40aU, 0x3e983aecbddb87c5U, 0xbd643d213e051e31U, 0xbbf4c0b8bcc339edU,
  0x3e735899bc3c01d7U, 0x3d1f1c02bd4ea497U, 0xbdb3c93e3da8f87fU, 0xbd83d35cbd501beeU,
  0xbe755bbebdbb16f1U, 0xbdd2ca053d255854U, 0x3e89bdc63e32685bU, 0x3c24babbbb4c3f1fU,
  0x3cbf2743bdc3a8edU, 0x3ca961b53d1fb028U, 0xbd9a339dbd8ace42U, 0x3d1ea3f9be04a631U,
  0xbe212528bde882fdU, 0xbda26c71be20d908U, 0xbd5c2f933eae64c7U, 0xbd05e6edbe007347U,
  0x3eab5019be333011U, 0x3cfd2d413e4afaf3U, 0x3d86dac03df5237bU, 0xbe109ad93d896512U,
  0x3c1ec69abd640b21U, 0xbe44d3db3e4586e3U, 0x3c0c5cd1bd31ae60U, 0xbe25741e3d8312b9U,
  0xbdd706f8be2416c0U, 0xbd8464103d0014f6U, 0x3ead45e9bdfb238cU, 0x3e56e5aabdc95fdbU,
  0x3e330c303e108821U, 0xbb2ecba23debf2deU, 0x3ddaa536bc5421b9U, 0x3e708134beb3e3d6U,
  0xbdedb859bd764863U, 0x3ccb79643e90b790U, 0xbde06f9a3e8277afU, 0x3cfb318abe243f0bU,
  0xbc11eab53dc2723aU, 0x3d3936263e0d5af6U, 0xbc34fc3ebdc4ed1eU, 0x3dc526673cd98bceU,
  0x3e2565e23dcaf205U, 0x3d9af58c3de130a6U, 0x3e6f0be23cfa8524U, 0x3e0a9b64bc6244f8U,
  0xbd8c7dc6bdaf29e5U, 0xbdf553df3e4b2bc7U, 0x3e4d5cec3e184013U, 0x3d838b9c3bbce7c2U,
  0x3da606123c9085e0U, 0x3e10fd6ebe0db369U, 0xbda0a9af3e3a85b6U, 0xbe68386d3e827d81U,
  0xbc783645be6d377dU, 0x3e2bef78be7354e3U, 0x3c3e41a13deae387U, 0x3dc89e1c3e025878U,
  0x3e0eb902bbfb16ceU, 0xbe76d7fdbd4778f8U, 0x3e135808bac4f991U, 0xbe4ef12ebddf6b42U,
  0xbe3efc883d0f537dU, 0xbdccbd333c8ba365U, 0xbe28fe643cf9213fU, 0x3e34b593be05b628U,
  0xbd7f4e13be148429U, 0x3c90697d3de654beU, 0xbe215ecfbe316541U, 0xbdc811c6bda7099bU,
  0x3cff96d3bdf2c2e1U, 0xbe67f0203e18991aU, 0x3e62d056bd0b94e0U, 0xbe023dd9be10d3dcU,
  0x3ddd51153e43e54aU, 0x3dd1d082bc844221U, 0xbdcdc19f3d8985f7U, 0xbd781b7e3de4a511U,
  0xbc809b55bda71f2cU, 0xbea3f11ebe45d12eU, 0xbdf80667bdf08a82U, 0xbdb712a0bd10cfc8U,
  0xbe49b89ebe32f0d2U, 0xbe9234ddbe96bbc2U, 0xbc8ff48d3d4b652dU, 0x3d32154cbd200719U,
  0x3deb0af3bc1760c4U, 0xbbd64d9e3dbb9772U, 0xbe0ca5d53d789270U, 0xbe09d60fbd8be0b2U,
  0x3e28a7c83d6917ceU, 0xbcec522a3d31270bU, 0xbe8f1863bdb1a975U, 0xbdfb1e15be253149U,
  0x3d95bd67be24519aU, 0xbd06608cbdb9cdbfU, 0xbe86e3cebea0845eU, 0xbe0091fbbe134c46U,
  0x3de1e1033dcf3107U, 0xbe13c805bcbf92abU, 0xbe1563dc3d8f97bbU, 0xbed14fc8bd27f8bdU,
  0xbdad4462befac373U, 0x3bd3a2d5be8bdb75U, 0x3def0ebe3d5323c2U, 0xbd507ab53ce2653bU,
  0xbe36b9abbebda6f2U, 0x3db7d0a1bd3f5961U, 0x3b4d3c2cbd573dacU, 0x3bbd5dbdbde0cbccU,
  0xbe0ed9f0be419a04U, 0x3cd9873a3e08472dU, 0xbd729bbf3e90e0faU, 0xbecc4df73d4e46c9U,
  0x3eabfd51bd057140U, 0xbb89fdc93d8da060U, 0x3bf5b3a1be78545bU, 0xbdd5d774bda7bc5cU,
  0xba49dc2b3dc086d5U, 0xbe85fe3fbe83013cU, 0x3c0059fcbdb60574U, 0xbace2a73be96de21U,
  0x3e7e1e90bdf431acU, 0x3d9ed7ebbe80543eU, 0x3d552e273e3d1f4cU, 0x3d72b8883dd04bf1U,
  0x3b5323cebd163edaU, 0xbda1337a3e2d2d21U, 0xbd202a77bdb583bcU, 0xbe4146abbd762fefU,
  0xbe4cdac9be9d7e19U, 0xbe789cd5bcacf3a2U, 0x3dbe7c763de9f3edU, 0xbe8dcfe83dbfce6fU,
  0x3dda3243be3db664U, 0x3e13804abcc840daU, 0x3a26999bbe5a9a2fU, 0x3d6e0337bdcfa5c1U,
  0x3e5cb145bd2ae480U, 0xbea251e33d90699eU, 0xbe615ff63d802f1bU, 0xbb4111cebe3a5a04U,
  0x3e05fb4fbd8d0f99U, 0x3dfb6bbabe06f98bU, 0xbe4ec70dbe449eedU, 0xbedc89113d04b8b3U,
  0x3b043cf23dbd21eaU, 0xbe3db0483e16b86eU, 0x3ca43bc3bd80a665U, 0x3d01532abc555977U,
  0x3d5d0734bd8b5fdcU, 0xbe2363b43cdd5687U, 0xbd8802ffbec455c5U, 0x3dcd8911be640763U,
  0x3d544b483cc18c8cU, 0xbc888cbf3e82a5efU, 0x3e2072893e4e099dU, 0x3e4dca323d9babecU,
  0x3e0b415d3dd43d25U, 0xbeaf30803e0b58c9U, 0xbe317dd9be6f27aeU, 0xbe6bcf4fbe698a6eU,
  0x3dad2b76bdaffe0fU, 0x3ddd9daf3e942498U, 0xbdd54ef5be1a5a16U, 0x3c119f0a3d82d1fdU,
  0x3d73c0993d2e6d78U, 0xbda9acba3d82c045U, 0xbc5348cb3dcb641eU, 0x3e2dd54d3de356beU,
  0xbe801db83d22f754U, 0x3db81abfbdfa84fbU, 0xbd974bd6bec0a5a8U, 0xbe8507723ea1020dU,
  0xbe6c6e5cbdc6deeaU, 0x3d3c9dde3d60ecd8U, 0xbe46f0f93d0f2cabU, 0xbd39c3f6be308716U,
  0xbd584937be437b89U, 0x3da18d8abd5bbdd8U, 0xbdc3edf53b0d8fa6U, 0x3eaea71dbe325565U,
  0xbd8401353d46caa1U, 0x3e8a3558bb46b16aU, 0x3d9badd7be18f49fU, 0xbd516ac7bd92d396U,
  0xbe8924aabe4118caU, 0xbe70356bbe8d73d9U, 0x3d930a9b3e10c523U, 0x3e96cbb5be113467U,
  0x3dbd5b3f3e197a1cU, 0xbe447a6e3e522ffbU, 0x3d0a06333d904c78U, 0x3dd831c5be4a0fb5U,
  0xbdfaf6f53dfcb168U, 0xbe1fbef2be46b9e3U, 0xbe548bdbbc54b223U, 0xbe3931bf3df30240U,
  0xbe2a0a3f3dbb0236U, 0x3de0efe03db835c4U, 0x3e65af0dbdaa9c2eU, 0x3e013771be12f9f1U,
  0xbe00c4c7bc03a620U, 0xbc429d6cbeaaabdcU, 0x3d4c1b773de41882U, 0xbe0427e73e2924bbU,
  0x3d668bcf3db8da09U, 0xbe330a403e484977U, 0x3e8dea5ebe94c53bU, 0xbe5556dcbe932332U,
  0x3e882053be156c5fU, 0x3e585002be9eee2dU, 0xba78b642be005f49U, 0x3ea8c0ad3d38778aU,
  0x3e0fa32ebe2748baU, 0x3e1fdaee3cd660d4U, 0x3dd1b5aa3d0b65aaU, 0x3df559c73e8c2073U,
  0xbb0f6e083e06b0c3U, 0xbc0c7892bd547e95U, 0x3e46d027be782e79U, 0xbe659e803e54a269U,
  0x3d033788be4eb7d6U, 0x3e4b52c43e284f3cU, 0xbdaecd90bc08fcdbU, 0x3ce2fca0bdf354a1U,
  0xbe308513bc1c6821U, 0xbd55521fbc96a504U, 0x3e1dddb83de35852U, 0x3c9a45ca3d818519U,
  0x3a37c85f3cd0f0d7U, 0x3d8b8fa33dfc9620U, 0x3d64bea3be89e488U, 0x3e866ce63be62f41U,
  0xbd63dfde3dfee02cU, 0xbdcd789bbdb46cbfU, 0x3e90fb4d3dc110bbU, 0xbdebbf9dbe0a9351U,
  0xbdaeb3e53e21ebf7U, 0xbdfec6183ddef766U, 0x3e2942683e08437cU, 0xbd8fb2c93e813c92U,
  0x3e89e9cc3e7aeadeU, 0x3d252ec5be8b4515U, 0xbb3fef983c879b48U, 0x3e1f3fc8be1b2ef3U,
  0xbee2fa133e478eadU, 0xbe553fe03d196d6eU, 0xbc6a4c353e22bb3dU, 0x3db5824cbda18231U,
  0xbe6cc01a3eba8c9bU, 0xbe6052d4be916dd7U, 0x3e755cd23d85e793U, 0x3dc4a8c4be03acb5U,
  0xbdae5fdb3dc3db4dU, 0xbe24db503d560c86U, 0x3e9544a6be047b76U, 0xbd9555f43e4d0fb7U,
  0xbde5acd43e3fa0c8U, 0x3e3ac7933e2b9eadU, 0xbecd9574bcff740aU, 0x3e590a343dac974dU,
  0xbd659f903daf529cU, 0x3c35de913e6c2fe0U, 0x3aa6fdfbbd9844cdU, 0xbd2756363e584b7dU,
  0x3e422104be61af8fU, 0x39d343ebbd9a20b2U, 0x3cd0e4f93ccd309dU, 0x3de9855fbe76a87aU,
  0x3e0dd87bbd8d7dcbU, 0x3ddfa062bec6d8a4U, 0x3e4d5242bb81631eU, 0x3e78c67b3e1a55caU,
  0xbe002b943db9e3f7U, 0xbd722d1bbe48a814U, 0x3dc394b53e3d6861U, 0x3e2b9addbe34a209U,
  0xbe7b62cf3dfda890U, 0xbe6978e2bda52d8cU, 0xbe28e47ebe2e2099U, 0x3d8f0fbc3e3efd0eU,
  0x3dc2a3583cc56120U, 0xbe394f1dbca2f936U, 0xbdace64e3dad7d34U, 0xbd685a97bdbdc2b8U,
  0xbdc3d6e03e0c0276U, 0xbd9445d33c87b8eeU, 0xbe1bef773db2c956U, 0xbdf4a0b23e131c29U,
  0x3e155a5fbd648f39U, 0xbd9c5b7f3dee59f6U, 0xbc3fbc3e3e5820adU, 0xbe11e9943d19f43aU,
  0xbd75e3d5bc2b5bd6U, 0xbe51d10ebe5c04c5U, 0x3d7804dc3e60b209U, 0xbe27fb31be56c0f5U,
  0x3e46b31fbe2367eaU, 0xba094782bdcef185U, 0xbe28285c3de889c0U, 0xbd96b560bc88916bU,
  0xbd1c4134bcd57e85U, 0x3c18a9353b1f4683U, 0xbcb7d9fd3d44d29aU, 0x3de039743e5c7e19U,
  0xbe308e6ebe521e8aU, 0x3d15f3c03dcec584U, 0x3dfeb3833e32ee52U, 0xbdb404fbbc37efb9U,
  0x3dccf7313e1b9b9dU, 0xbdbf2c123e457a8aU, 0xbd1e363e3df648f8U, 0x3d734af2be2009e6U,
  0xbe6959f83e73ca04U, 0x3ea52d50bdf4cadcU, 0xbb16e506be02fd37U, 0x3d9d6d8a3e440d2fU,
  0x3e1ddbb8bd22c7f9U, 0x3e2c1f78bdf5db7cU, 0xbaca151ebd122797U, 0x3d8037a33e21c32aU,
  0x3e1d32903e305527U, 0xbed9710c3da17194U, 0xbc12bf5ebb10e509U, 0xbd9111b5bdb9cf46U,
  0xbe32100c3d257e7dU, 0x3d94983bbe19c939U, 0x3de9b81dbea79f73U, 0xbce201473e865a1cU,
  0x3df56735bea36cebU, 0x3d13aa38bf0a3a66U, 0xbc7c2d4e3e43200fU, 0x3ca541f9bcf89fbbU,
  0xbd26921e3dd292abU, 0xbe461c2cbe562839U, 0x3de97f683e104b0cU, 0x3c1ac109bdadafafU,
  0x3e21acd9bd2c5f51U, 0x3d010002be73378bU, 0x3ddf6efbbe1df904U, 0x3dc00340be917f36U,
  0xbe2880c73d3eef3eU, 0xbd854822bd0b2b5aU, 0x3dd40ed1bdf277f3U, 0xbdaf8e843e0bb7f0U,
  0x3dead104bda3288cU, 0xbb8627533e1df271U, 0x3c6c08853c1dd89eU, 0x3d9eae2a3dbf9a8aU,
  0x3ce17ac0bccd8921U, 0xbc5aace93e0389f5U, 0x3dc2c5233dd0a071U, 0x3e148d10beb5ed48U,
  0x3e28820b3e1b495bU, 0x3cb618d23d4ff49eU, 0x3e441c03be15d17eU, 0xbda9d5ed3ccd8ac3U,
  0x3e2724c8bd00a6d4U, 0xbe6fe7e53d98d71eU, 0xbe375a7f3e5e2a09U, 0x3e0cfb183d0e27f2U,
  0x3ea4eadb3c8dc844U, 0x3e35fe843d16e010U, 0xbe6c1f633c28baf7U, 0x3e5f3ea5be4747ebU,
  0xbd0785a83df64598U, 0x3e42bd993e8577eaU, 0x3d1cf0cbbda8aeddU, 0x3db305a13d376fe9U,
  0x3c3b351f3daa44d2U, 0xbe06ea653e8a406fU, 0xbc84fd813da0643eU, 0x3d0c4402be06e583U,
  0xbe8aa7da3c24791cU, 0x3d1b01ffbe0e9e6aU, 0xbe879709be037336U, 0x3e1bafd63e6d39b4U,
  0xbe3088db3d834544U, 0xbe25ee14bd0a6684U, 0x3d751cbcbd690bafU, 0x3e12ac70bbe7b2eaU,
  0x3d9bf505be0f28b8U, 0xbc5c2f7cbe359729U, 0x3c972c6bbe079c60U, 0xbe5c8e0c3e5a93f9U,
  0x3ed5b15fbcb89bd6U, 0xbdf191843cff4f22U, 0x3d1875bc3d982042U, 0x3dd425b5be5c8e27U,
  0xbd80bcdc3c26c0e1U, 0xbe47f8babe1b63eaU, 0x3e2c2dd339d82217U, 0x3aca52913d7c84f3U,
  0x3e1c1af9bdf5b78bU, 0xbd40deb6bdc4bdb1U, 0x3cf7a55f3c1897ddU, 0xbc79346cbd4c5499U,
  0x3d132e29bdaa7884U, 0x3dc1a153be19029aU, 0x3cb9d56a3e479ca2U, 0xbe0ff580bd43dd4cU,
  0x3e27af323e5df156U, 0xbd564ef1bd27a543U, 0x3d8ce57f3d885d59U, 0xbe607584bda49fefU,
  0x3de0e6583b9cb63cU, 0xbdd5e71e3e46a637U, 0xbe0bb680bdb1ccfcU, 0x3df9c1cd3de30279U,
  0x3d62839a3dc7f8b5U, 0xbc5aa99a3e5e6966U, 0x3dc3e2373e20868cU, 0x3e646a15bd0e131cU,
  0xbe3023a6be20b3fbU, 0xbd553326be75eaf0U, 0xbdd55ce03ced4b06U, 0x3d9db847bc1abb22U,
  0xbd82fa6fbcba6462U, 0x3d2f7b7c3d37f526U, 0x3dd1a6dd3d0a1cebU, 0x3e73127dbd787b9aU,
  0xbdef96c33d392f53U, 0x3e0ac7373d165a59U, 0xbd7e02ae3dcae567U, 0xbd62fda4bdc624bdU,
  0xbe2577fe3c80dac4U, 0xbd61003c3dff545aU, 0xbd9e1d8c3e1bd5ddU, 0xbe2fcaf03dabbba7U,
  0x3c99f360be6533f1U, 0x3dfc13473c09ee68U, 0x3c94a6593d10254aU, 0x3e13631bbd5f60d4U,
  0x3ca6fe9fbe2bfefdU, 0xbe6543cbbd42228bU, 0x3db6e1013cd313b4U, 0x3d5bc8b1bdae523dU,
  0x3d07d778be7720ffU, 0xbc4c3cdabd071ea5U, 0x3cf77345bda33992U, 0x3e0c45b83dd31c29U,
  0x3d231775bef8c85bU, 0xbe1ec0aa3d347f31U, 0xbea581373ebdd592U, 0x3e1a1edabdc9a59cU,
  0xbe14e556be5a20fcU, 0x3d0d077a3e3d10b0U, 0xbe29f33f3e3856dfU, 0xbc4ef31b3d2cdda2U,
  0x3d84a1743d6804bdU, 0x3b559c8bbe49c7b7U, 0xbdcfb0363e027268U, 0x3e142c483d9dfe80U,
  0x3e0250a83e23f4c7U, 0xbc1c53dabdbe94baU, 0x3e8218d5be3b6a2eU, 0xbe37c6bebcc9d58cU,
  0xbe05a86a3db785f6U, 0xbe054ee5bdd786eeU, 0xbd1797033e1e358bU, 0x3d3a95c9bc259b08U,
  0x3d7a6c9b3d1e54a5U, 0xbdc81e54be58ecbcU, 0xbdd018b3be48d1eeU, 0x3da9ace33c854b08U,
  0x3ce8651abc6f26ccU, 0x3ca302dbbd890b07U, 0x3e886b8fbd04e03aU, 0xbc90b183be0046baU,
  0x3e53fee1be094746U, 0x3dd69e07bde2a409U, 0xbde7a2bfbe88d95dU, 0xbd57333d3d039389U,
  0xbd9234f5be31cb8aU, 0xbc9702163e65b6f7U, 0xbe8ed1dfbe0607f7U, 0x3dca49063db645e3U,
  0x3e1e9b47bdb71019U, 0xbdb336233aedaa20U, 0x3db8a840be525fb2U, 0xbc2e469eb95ec761U,
  0x3dcc67cfbe353ae0U, 0x3822f534bd4ae786U, 0xbcf245863d17f79fU, 0x3cc594de3e03d98bU,
  0xbe14f39f3e114d24U, 0x3d7803a63dcb34a7U, 0xbdecabb73e41d548U, 0x3de1060c3d9d7a0aU,
  0xbd276a813dff4ebbU, 0xbe045e99be064fa3U, 0x3dadac8cbe2ee4e4U, 0x3bff66b7be01f558U,
  0x3dae56863e37ace3U, 0xbdef480a3e3bfffbU, 0xbb1389d53e48840fU, 0xbddf20f83e5d0b2dU,
  0x3d70c71f3d214d18U, 0x3e3443e2bda70f64U, 0x3cc59888bda81086U, 0xbe62b383bd9c71b3U,
  0xbe485af1bdf20028U, 0xbc665fe33d0b8342U, 0xbe219a1cbe0a18c4U, 0x3db4048a3de7f876U,
  0x3d5277083e0696e9U, 0x3d2c7656be4c4d4dU, 0x3d1a50833c228268U, 0x3e4f36d3bdcb0402U,
  0x3cbc3a983e598112U, 0x3df342b1bc8cb3daU, 0x3de12b59be40c132U, 0x3de429febb7291cfU,
  0x3dd87f763dbb164dU, 0xbe3ae0083c5db2e1U, 0x3d941499be4c8259U, 0xbd95ae4fbd74294aU,
  0xbeb09ffabb9a3a1fU, 0xbd62338dbd0eaf79U, 0xbe1e6b7a3e2f6bf9U, 0xbdd97da23c999ea8U,
  0x3e10e4be3d4cc6c6U, 0x3dd2e5bc3de61444U, 0xbdc5a9473e18dc46U, 0x3e770458be005446U,
  0xbcce5362bd09220cU, 0x3e01bd27bd76797cU, 0x3e288c6fbd8892b7U, 0x3da3d145bd5a8228U,
  0x3ca8490bbe02e4c8U, 0x3da959993e339972U, 0x3e44af11bdf7dff4U, 0xbe50e0afbd6785e8U,
  0x3dcfe4f93e303e14U, 0xbe76612e3ccdf040U, 0xbeccf0babe50c670U, 0xbdf57b31bd15f50bU,
  0xbc9cb05c3e652e7dU, 0x3e0472a8be1b4f01U, 0x3e12d8a23e883005U, 0x3e9c16993eef6aa0U,
  0x3e5012823cec9febU, 0x3de6e837bc1ac554U, 0xbde284cfbc16505fU, 0xbd673696bdf27206U,
  0x3d9cf7f43e08cee0U, 0xbd6996a83df4a40aU, 0xbdfbe6e33d99376cU, 0x3da5a0a63d82f90cU,
  0x3c14870e3d96ba12U, 0xbd60046fbe729cceU, 0x3cb340603db7cc23U, 0x3c1d4934bdecb7d3U,
  0xbecd3e49bd4994d9U, 0x3d44700bbe039038U, 0xbdfdea9bbec7c473U, 0xbeb7dae2be4e5781U,
  0x3eda8ec2be3057b8U, 0x3d810f8d3d82d543U, 0xbda0848a3e268e95U, 0xbe5b93a6bdbe81bdU,
  0x3dc3bd4ebe858683U, 0xbd1373a93e5d41afU, 0x3d105ea83daacf19U, 0xbb325db93c5107b5U,
  0x3c91f5b8bd21b7b1U, 0x3e1000f33e210356U, 0xbe6bb9863decae26U, 0xbdb026e4bd4ca982U,
  0x3dd675ae3d13058bU, 0x3cb92bf33e248933U, 0xbde312cfbda4a7d5U, 0xbe7241153e64bbbdU,
  0x3cc457233db76a04U, 0x3b73a401bbdd1b42U, 0x3e84dcf1be3d437aU, 0x3e5f8ef1bdd9aa76U,
  0xbdfb01403e2888d2U, 0xbddb48c53e1abfb9U, 0xbc2293ed3d1ba0dfU, 0xbd6fa3febdb9ecbaU,
  0xbe8b8dcd3cb61a56U, 0xbe2235c73e34633cU, 0xbe518ca3bad5f61fU, 0x3dac247f3df3439bU,
  0xbdb0b8a0be151e70U, 0x3d87c120bddf1d14U, 0x3e13de853ec51184U, 0x3d3e4867be613cf0U,
  0xbe089f053c630beaU, 0x3e7990983bc6de8dU, 0xbdca6d693d7cc8d2U, 0x3d30e1b13e0b8ab1U,
  0x3e8de000ba9480a7U, 0x3d659dcb3deee78bU, 0x3e9b4acfbde9aaa3U, 0x3e0ef280be30c352U,
  0xbd854d9ebe59ed1cU, 0xbd9133f9be28d349U, 0xbe12b354bb3480d5U, 0x3ea89e913c8a91d5U,
  0x3dfff9113ce237a9U, 0x3d874c0f3dcc292fU, 0x3d6a4bf43d973933U, 0xbdec4e543e49342cU,
  0x3d76672e3e898ff1U, 0x3dd2172d3d4ff856U, 0xbdf6677cbd5abff7U, 0x3df95c49be609e7cU,
  0x3e1935f33d92b1e8U, 0x3e5ddec7bcd3e4bcU, 0x3dec8fbabe1b9ba1U, 0x3dc3faf53da5728fU,
  0x3d84e252bd27d4c7U, 0xbeaa15523dbf96c0U, 0x3c8159663dd25bc8U, 0xbd913ef23dae0b9cU,
  0xbe8b05ce3d30a357U, 0xbdeb5254bdb0b1f5U, 0xbe3156ed3e4ba6ceU, 0xbcc90f1abdf6a2a4U,
  0xbca844673e09f4d2U, 0xbd53dd2a3e8026a6U, 0xbdff2735bde7b22eU, 0xbe2cea7b3e1ea07dU,
  0xbbecd5f73e010436U, 0xbdcc7869bc3d0eacU, 0xbb25893a3dd0d8c2U, 0x3e21d3603b5e04eeU,
  0x3d600a143cc6e704U, 0x3e080727bd58af6aU, 0x3deff795be06e73fU, 0x3e2485463d1302caU,
  0xbdcb885c3e1a3049U, 0x3cdbba213e0cfe81U, 0xbe86b971be407b3fU, 0x3dbcaca5be1ad8fbU,
  0xbdbf68c23dc3fad3U, 0x3c8592d33e13983bU, 0xbe38807fbe648e0dU, 0xbd49755a3caccafcU,
  0x3ddb84b13dbee6b0U, 0x3de25dc73e465388U, 0x3e126ede3e1d6cffU, 0xbcca720fbe5b8062U,
  0x3dd12a7ebe2c0ae9U, 0x3df0e5d7be1eb208U, 0xbd19b46a3cd5216fU, 0xbe0499cdbd924d71U,
  0x3e47faa4beb63089U, 0x3d58e9733e35a252U, 0x3dc1d79abdfe6924U, 0x3dbd52273bb288daU,
  0xbe22960b3d98a9f9U, 0x3e016e95be361a4dU, 0x3e3065dabd05650bU, 0xbe0fa89ebdf92a7cU,
  0xbca8de803c4ac3f6U, 0x3e00bf7ebe5e2c60U, 0x3e3d81b23e479c2dU, 0xbdbd2c823c94e922U,
  0xbe43e825be347f5cU, 0xbc9b1ed3bd0975abU, 0x3daf35903cb1e8a6U, 0x3da0f5c63d1c4d43U,
  0x3d8824b03dd476a8U, 0x3dcbc45d3dd4f9a4U, 0x3da9c9283e0d71b6U, 0x3e05c9eb3e25aa5dU,
  0xbe995b80bbd065e3U, 0x3d87045b3dd16cb1U, 0x3dbbc08abddfac3eU, 0xbe8931a4be4bf590U,
  0x3e695db8be4c1ca1U, 0xbe2486e3be277e24U, 0x3d29d66dbcdcdf39U, 0xbda71be83db9b6baU,
  0x3e8007183d6c0daaU, 0xbd80b89abd379e52U, 0xbce2286dbc2ac209U, 0x3e86715b3dc9a7cdU,
  0xbd48f1043d649809U, 0x3cf119a2bd760da1U, 0x3e07280c3da068dfU, 0x3bb090f7bdfbdb16U,
  0xbdc18a52bb444067U, 0x3e0690bdbe21ae94U, 0x3b12f339be06ae51U, 0xbe3e0118bd87a86aU,
  0x3e33ab16bd63d78eU, 0x3e303af2be874340U, 0xbd8d90813dc1f31aU, 0x3bcd62273d8b931eU,
  0xbe188b1c3d0d06edU, 0x3e140bc0bdaff955U, 0x3e43ff6cbb40c5f6U, 0x3db31d3fbb62858cU,
  0x3ddfe725be074ce6U, 0xbd7b7a313d45a391U, 0x3e0ce9c63c8b4166U, 0x3d8259bcbd6dabf8U,
  0x3d5f52ce3b176f75U, 0xbc8eab0bbdd751f2U, 0x3e50d3383d1076c0U, 0xbcb93ccf3e282a1aU,
  0xbd2cd3fa3dd78c5bU, 0xbdb99cde3dfaf392U, 0xbc6c6f53bd3b3cf3U, 0xbcb82dcd3dd9f260U,
  0x3e2c0824be9593ceU, 0x3d4267d23e0c3860U, 0xbe9d3e6d3c3b3b28U, 0xbe7a6f403e593e6aU,
  0xbe16bc183cb4ac18U, 0xbd65e63f3e277ce5U, 0xbe0592a5bd7dca1eU, 0xbeb7a78bbe177ceaU,
  0xbea4fa9fbe551f24U, 0x3e12fc873d84f12cU, 0x3e07b158bd9bb055U, 0x3e6d5615be12c419U,
  0xbe04e4cb3b32d93bU, 0x3e58e071be30cc94U, 0x3e7f12b23dc4ed72U, 0x3db2d48ebdaa55a5U,
  0xbc90c7d03dc93c63U, 0x3ddeec7c3d90e8b4U, 0xbe2fb19abdad320aU, 0xbdcafb753cc809a9U,
  0x3d2ba18fbdd62952U, 0x3d914ef83e488b7dU, 0xbde280d63dd0f9a5U, 0xbe80747d3e369750U,
  0xbd3460b23e017aa5U, 0xbd47b46cbe855018U, 0x3e05b257be55b5a3U, 0xbda420d53cec2aecU,
  0x3dcb5cc7be6f595dU, 0x3db2c5abbe15ae21U, 0x3e0fe1493dcaa138U, 0xbdb9a5bf3e2ba117U,
  0xbda2a0c6bd32ebaeU, 0xbe0dc5fa3e8ba560U, 0x3c161e7d3cb958b9U, 0x3e4bf30f3e89e3acU,
  0x3d894bcdbd7a5435U, 0x3cee98213c0321daU, 0xbd78e1e63d822fe1U, 0xbd4f9e8f3e1c73ccU,
  0x3c0b9b373e800d8fU, 0xbe42f3173e359d31U, 0x3d595c74bd025bc6U, 0xbde3a65dbe1fd4b5U,
  0x3d89d356bd0e6b3aU, 0x3e2adfca3ebb1edeU, 0xbc8653e73e256d9fU, 0x3e19f576be8c4181U,
  0xbe6ffc0a3c5c86deU, 0x3e00656a3d0f5fbeU, 0x3d95fd56bd8b82bdU, 0x3d08d643bd878164U,
  0xbe0b37ee3c9ed99fU, 0xbe0597463d1efa88U, 0xbd806d7c3d578f83U, 0x3d108374be6dcc62U,
  0xbdc343133ea34405U, 0x3b916e963d50535cU, 0x3e799daf3d93e8f5U, 0x3da3ae903d613a5bU,
  0x3edec5a93e0b72dcU, 0x3dd01d0bbdc9f79eU, 0xbdda4931be2ccca7U, 0xbdaf59633910e225U,
  0xbd69fa88be0ee68eU, 0xbe7dd2c63e1c66e7U, 0xbe2842ffbd5c4e6aU, 0xbe3b3e43bcd1c87dU,
  0xbcde42713d82472fU, 0xbc0a7757be62026bU, 0x3e0145863e352adfU, 0xbe125bb4be29eb22U,
  0x3e0facd8bc986fa5U, 0x3e0084c03c9cb696U, 0xbdc745043d70ab14U, 0x3e6553fabd5a4b74U,
  0x3d9653f43cb4a380U, 0xbd0ac6debe96be24U, 0xbde4d13ebcee065fU, 0x3dc9c9fb3e5c7432U,
  0x3bfa212f3e1494feU, 0xbdb88f4e3d2c0c51U, 0x3e440fda3d82f2d3U, 0x3e137663be34e0d2U,
  0xbe555fc83ea20f65U, 0x3da299c43eb396b3U, 0xbd1749c1be1e79d6U, 0xbe2053633e49a9ceU,
  0xbdd7ae453d29881dU, 0x3c60864f3e851f18U, 0xbbf374b0bc94a8a1U, 0x3dd9ba7bbe92a578U,
  0x3d3440fd3b931632U, 0xbe406a793e7cb051U, 0xbe3557b9bbfe778bU, 0xbd9708ab3e4f4e8dU,
  0x3e7401f33db58416U, 0x3e1f0e45be91c71eU, 0x3dffcadfbe4ce1fcU, 0x3cbb91113c430147U,
  0xbdd8bcf43d85366cU, 0xbd7f7042bd99d397U, 0x3d4ace14be4fcf43U, 0x3d804a8f3da4d6f2U,
  0x3d49be183e484b84U, 0xbd675a63bd85fd7bU, 0xbe4594803d291b2bU, 0x3c062d31be3aaeecU,
  0x3cc9a300bdfa8eecU, 0xbd2e8e87be0dca9cU, 0xbea4126f3e1bae66U, 0xbcaf2e59bbe09969U,
  0x3d61ec60bde63c96U, 0x3cf028903e26ce15U, 0xbd8ca98f3e03d8b0U, 0x3d38feb539813270U,
  0xbdf1e571bda0e7c4U, 0x3e0c48c4be1d4086U, 0xbd36e2fabda6949dU, 0x3e64b03f3ca7ef4cU,
  0xbdc72669bd8962ddU, 0xbaef76003c91e7c8U, 0xbd7d6a35be65affdU, 0x3c81f2283dd8a048U,
  0xbe5f58533e2064f2U, 0x3e4d01fcbdc94552U, 0xbe2f4220bd6f58e9U, 0xbe052a833bec7264U,
  0xbc570676be7ca8abU, 0x3e7e57113dc023d1U, 0xbd284684be2e8668U, 0xbe815c653c520c4dU,
  0x3e16b7b73dd5a1e1U, 0x3cacf9033d1b6464U, 0xbe4efc83be53f01aU, 0x3e1c7b97bea82322U,
  0x3dbe08d1bd11e368U, 0xbe63b8293c022c05U, 0xbe6605a43c911887U, 0xbe8776453cf1d333U,
  0xbdb99b193ddfdfeeU, 0x3e822c033dc5b255U, 0xbd4ff5b83df05646U, 0xbeb16c063e48f6f0U,
  0x3dae19a13afeed7bU, 0xbdade0113e4203b6U, 0xbd9354fdbda0d010U, 0xbdd437d4bdc24068U,
  0x3e1a7e67bd22a08fU, 0xbc2d7a0bbd316b7cU, 0xbb1946fcbe9f017eU, 0xbd1a6d823de8661eU,
  0x3e9da0443d54f55fU, 0x3daa0a733de7508bU, 0xbda6c9cd3d946087U, 0x3e0d4f753cd143d1U,
  0x3d368df0be1077b8U, 0x3cb398dabe01ef75U, 0xbe47e8ea3dbb2272U, 0xbde2c11ebdcea976U,
  0x3d26355cbd6e327cU, 0x3d030d52be0d82fdU, 0xbe4278013dcd2514U, 0x3e93059cbb341c82U,
  0xbe3682163cee598eU, 0xbd2f65c13e43e7a4U, 0x3ea2d9233e0ccc79U, 0x3e1da14c3e1687b2U,
  0xbe34888bbe5a9b17U, 0xbd898011be014db6U, 0x3a0319903e8b89a5U, 0xbde4bd3cbe418522U,
  0x3d948570bdc94286U, 0xbe9d1302bd43eeb3U, 0x3e00a91c3d74cb09U, 0x3e87e3d0bc7c456cU,
  0x3e253f0a3e4653a3U, 0x3e0998313e06c153U, 0xbd5ec4d43d3a12cbU, 0xbe060641bdbb267eU,
  0xbd15db3dbdf20849U, 0xbd88d91c3d767607U, 0x3c827427bc1e0a31U, 0xbded73e53e627984U,
  0x3dade6babe8a8ccaU, 0x3dbff1b7be84df8eU, 0x3e5cf8393d2fb947U, 0xbe027533be2f8288U,
  0xbbdfdbbbbe2208c9U, 0x3d3a518dbdf5afebU, 0x3e070aa63d6ddf47U, 0xbca05e16bd9f9381U,
  0xbe06a8d9bcd5232cU, 0x3d69539c3d494448U, 0x3e0712c63def230dU, 0x3c8448463dad1caaU,
  0xbe10e5293d906b35U, 0xbc7dac9a3e653fe7U, 0x3da376cabe385cb4U, 0x3e288b7b3c8d35e5U,
  0xbe1a6528be598dafU, 0xbd8bb65ebe53e04dU, 0xbe3bc5513e49b256U, 0xbe5f744cbdcf577dU,
  0xbcee888cbe274407U, 0x3b865231bd3ca3f2U, 0x3e07aababc347b40U, 0xbde83cd33e3f06abU,
  0x3c00d514be8071b8U, 0x3d4e30493d1343ccU, 0xbe274d19be16051cU, 0xbdfca444bf13e6acU,
  0x3d1951b5be560b84U, 0x3ed37bfd3e18d536U, 0x3d7dc2993d60816cU, 0x3d632c173e4641bcU,
  0xbd90ebc6be16bdf7U, 0x3d0dde55bd80fb6fU, 0xbd8045f23e3608d0U, 0xbd8b3a48be076199U,
  0x3e03178a3cae073aU, 0x3de7a177bc2ebb09U, 0x3e2b61b2bc5f3ec6U, 0x3e478d203d5bc181U,
  0x3dc38948be5d363dU, 0xbe2ce86f3d08afcfU, 0xbea38f6fbe3398b9U, 0xbda27aad3e00eb4dU,
  0x3dededae3e14369dU, 0xbdc1cf8d3dc60e98U, 0xbe14d8c53df099a9U, 0x3a02128cbe567099U,
  0x3e084b49bdd2fb0eU, 0xbc6d7bbbbe67d869U, 0x3e18acf8bde13190U, 0xbe27adedbe35505aU,
  0x3d32e156bd7ceb0eU, 0xbe294911bdf33397U, 0x3cdda501be064896U, 0xbe0a58d33c84fd19U,
  0xbde52997bdc531ccU, 0xbe2d45963dd23d37U, 0xbd08fc413de334faU, 0xbd2b97ed3de69aaeU,
  0xbcc6ef2d3d0745d6U, 0x3d8a21ae3d3dd11dU, 0xbd9e14d13d762e10U, 0x3dd66f553e48bce1U,
  0x3e7de53b3cedeec2U, 0xbe68c07e3a4f7a3eU, 0xbdca493b3e0f4745U, 0x3bd6a6823d983ac8U,
  0x3e3ecbabbc0c0d98U, 0xbe7b05c2be12021fU, 0xbe3df5cebe538849U, 0xbe3b1f45be73ff9cU,
  0x3e091472be63c065U, 0xbeb7eaa8be591b2cU, 0x3d6f93763e4ab821U, 0xbdfbb34bbeaacbc8U,
  0xbe9c93d0bd2980d4U, 0x3e1ddbc03e521360U, 0xbdb5c9c1bde55eeeU, 0xbd61cbb83e7c591fU,
  0xbdbdd709bc98df5dU, 0x3d88ffa33e5a3d38U, 0xbd030fdebec6b49aU, 0xbe73413f3d0e74d8U,
  0x3cd3c8e5bd45c4e1U, 0xbd99b94b3e914e56U, 0xbd0bb8553e4630ffU, 0xbe81252a3d4773b7U,
  0x3da3f4f1be554c9dU, 0x3d973d253e4f5166U, 0xbd325881bdaf266dU, 0xbd51f39f3e177294U,
  0xbd201ddb3c786299U, 0x3d98617b3e39f505U, 0x3e4a68f1bd047e1bU, 0xbd70b71f3e0f8421U,
  0xbe7076f4beabdca7U, 0xbcfa04283e9eda19U, 0xbd8ec24dbe107aa2U, 0xbcd25893be057f81U,
  0x3b2a43cc3e1e1e65U, 0xbd4ac3e83ca4e2aaU, 0xbeddc9bbbe0c19e9U, 0x3da50628bda6a07eU,
  0xbeb0d729bcdc4c22U, 0x3dcd2e26be107ef1U, 0xbdc4da68be27e1e6U, 0x3ea6773b3c3655feU,
  0xbd6550ba3c3852a2U, 0xbeaa7a96bd3f166aU, 0x3e5ed85abaf56133U, 0x3df6775c3d6d59a0U,
  0x3e076a603d60d4bbU, 0x3e134e41befc8165U, 0x3e5c0696bdaf7e51U, 0x3e340098ba337b2eU,
  0x3de86c4fbea34324U, 0x3e45686ebe243340U, 0xbdf299883dee1cdfU, 0xbdf3cbbebe1936b5U,
  0x3e7e56dcbe1916f4U, 0x3dff7c553c75510aU, 0xbd9310093dbb05b8U, 0x3bd634623e67775dU,
  0x3ea0ad7aba13e159U, 0x3de4fc943e542585U, 0xbe1867d0bc960bf4U, 0x3e26681ebe654059U,
  0xbda542093e6bfcd2U, 0x3e78e6c7be59f29aU, 0xbec8b9353d676364U, 0xbd362c38bcdc784aU,
  0x3d5495e3bcfc3156U, 0xbd364b623d954c3aU, 0xbe140ad03c09c80aU, 0xbe5b8ea8bdeca265U,
  0x3ddf5eebbebc2409U, 0xbe28c783beca1583U, 0xbd2b6e643db44064U, 0x3e17876c3c873ce7U,
  0xbbcd447fbdc63048U, 0x3e52f234be72f8b5U, 0x3d1ed1f13daaa4d3U, 0x3db92e0a3e0d1278U,
  0x3e05b3a73e66c391U, 0xbd60732e3de55a2cU, 0xbd2bb5c63e330db0U, 0xbe9ca80fbd7b178dU,
  0xbdd2fc7c3ccfecbfU, 0xbd881877bdc62745U, 0x3e2b3cd3be02a79cU, 0xbe71a2b23e507a8bU,
  0x3e9ca72a3d2ce788U, 0xb6761790be20c716U, 0xbc01724e3e037e41U, 0x3d602aa9be343693U,
  0x3e05a2d4bdf3818eU, 0xbd08afbcbe5a7ca0U, 0x3ead64bebe6d0b47U, 0x3d53e95c3d3fbc77U,
  0x3e871a71bdabc7fdU, 0xbdd89ac73d829aa1U, 0x3db37dfe3ce1192fU, 0xbeb7fc80bded9c7dU,
  0xbe00cfb03d54ec3bU, 0x3e111dba3d1e830fU, 0x3dc71a843e926029U, 0x3ce3a56abc6c0e83U,
  0xbe127c98bd116ba8U, 0xbdbfbd6bbde00e3eU, 0xbdd66c5cbe1f15c6U, 0x3d1e1c0bba8d28beU,
  0xbe5dc4bd3debf4e1U, 0x3d2f58f7bc962565U, 0x3e3187bf3ce5181fU, 0xbdc5c264bd3975cfU,
  0x3e3a5d723dee0735U, 0xbe9cb2603e54bc3fU, 0xbe8c56553e24b4a2U, 0x3e9fc6af3e2c4afdU,
  0xbcccf1913cddd4e0U, 0x3c8ff1f93dd5a92cU, 0xbe4b7a093d3e3ee3U, 0x3cb8efd7be3300b4U,
  0x3c2538593d5aac12U, 0xbd0a5a69bddad19eU, 0xbe2e53693ddf7b02U, 0x3e565fea3c793dfbU,
  0xbd2824cb3d38cd75U, 0x3d5a57b2be2ab2c1U, 0x3d4b89d03e2288ffU, 0xbe33e71dbdcc61e6U,
  0xbd9536be3d2fd93eU, 0xbd7c363abda6276cU, 0xbeaa92093ea2d8daU, 0x3dfc8dc9bd4e4befU,
  0xbdf7d6423eb7caeaU, 0x3dec09d1be365c0fU, 0x3d45576abe61589aU, 0x3e5882cd3e0d09a4U,
  0xbd934bbd3e6a1ff6U, 0xbdb0525cbdfe080aU, 0x3d5faac43c62c4a2U, 0xbd8185e83d108633U,
  0x3d0903383d81e161U, 0x3e3683ec3d92a18cU, 0xbd17007b3d0b27a3U, 0x3da0a420bdab83beU,
  0x3e28d1043e4bc472U, 0xbd7e1077bcdbc530U, 0xbc89c5a2bd37548bU, 0xbbe8e3a93dd25a57U,
  0x3d8d5931bde0f681U, 0xbd239e4abe39bebaU, 0x3dbe6cd2bdc186d1U, 0x3d3b7722bde5a10dU,
  0x3e3398cdbdd75ac9U, 0xbe016a243d969251U, 0x3d1adb533def8922U, 0xbe0473fc3e4ae16dU,
  0xbe5a458cbe51f7d7U, 0xbce650303e1771a1U, 0x3da56e373d0ab741U, 0x3df76a96bdd479f6U,
  0xbe87dc6cbe24642bU, 0xbe40bc463e020040U, 0xbe3b86133d469a4cU, 0x3dab4ce83d3c59bfU,
  0xbe59705a3dc27dc8U, 0x3e44746abd87d04dU, 0xbe4fa4febb957d5aU, 0x3d6571b8be37bcfbU,
  0xbdc554b43d76e852U, 0xbdee79103e15b4b9U, 0xbbe46f5b3db2ef07U, 0x3dbeb3063e17e5f4U,
  0x3e211279be65c1a6U, 0x3e4c749abd82a81eU, 0x3e36c0e43d4710f5U, 0x3c7f6f6abe2e14bdU,
  0xbdf05bc2bcd91977U, 0xbd24d875be26c273U, 0xbd7be6fcbd2f9b9cU, 0xbaf144db3e26a568U,
  0x3dd84de13dbf6917U, 0xbdd26f7e3decf45fU, 0xbdf8a049bcb3decaU, 0x3e29f10b3d3c72b2U,
  0xbddffd75beae2c57U, 0xbdc05cb3be0c10efU, 0xbd9725553e56c06fU, 0xbcc12a243de247a7U,
  0xbc4b8358bdc8cff7U, 0x3cf6b631bcfff219U, 0xbe2873e03e0af8caU, 0x3cc3f819bd5a2c18U,
  0xbe0b25d3bdfe0450U, 0x3de326debcb241e4U, 0xbe10a1753ccfe57cU, 0xbcccb657bde508d0U,
  0xbd8e5716bd330dfcU, 0xbd81ce47be786b40U, 0x3da23701bcc8c09cU, 0x3c6894bd3d147b75U,
  0x3e34b668bd0786afU, 0xbceb85a2be556726U, 0x3d2996493eb465d3U, 0x3d5f96f3bd9041a0U,
  0x3dcbb1453e32e1a1U, 0xbe612c5fbd5dcde9U, 0xbe083ca73c8982a6U, 0xbc07b4293e38ee2dU,
  0x3e2562c03e2bff2cU, 0x3d5f4de23e6289ffU, 0xbda00b97bd9b7a58U, 0x3de41de8be15303fU,
  0xbe3f66533db5a332U, 0xbe67e40c3ebad6fcU, 0x3e6cebabbd9242e3U, 0x3e12f5fabe20b9f4U,
  0x3ea62250bea694e6U, 0xbe172370bdb43001U, 0xbdbd3a3bbd9a1c55U, 0xbdeed021be09121bU,
  0x3e57da913c5ff20aU, 0x3d711c59be168663U, 0xbcb6fb0cbe30ee22U, 0xbe091ac2be06766fU,
  0xbdcde18fbd0086a3U, 0x3e6c5566bd2b1fe0U, 0xbe1a2cac3d1df354U, 0xbe2aecf53d19e893U,
  0x3e83e3783dbcb164U, 0xbe31f2d23d3abbdaU, 0x3d2578bd3c0541faU, 0x3d9aa0113d18d3e3U,
  0x3e1ff9c2be5cb247U, 0x3e9d9c8d3d0977ecU, 0x3d892c103ee5b848U, 0x3d323b123d0e4a57U,
  0xbd75b3243e15131fU, 0xbe3f68913d0f8612U, 0x3cd89e393e448d9cU, 0x3dc759703e087355U,
  0x3d15b83dbe468ddaU, 0xbd45f1fb3cba1079U, 0x39c9fcc2bdb76614U, 0x3d225350be32c1a2U,
  0x3e7bc9c8bc432d31U, 0x3e225badbdbdfa88U, 0x3e83c6febc27482aU, 0xbe0d7f743e86c349U,
  0xbe33e9813ea98422U, 0xbd47ab243e0cf31dU, 0xbe62138bbe593040U, 0xbd1179acbda43ef8U,
  0x3df11471be21d83dU, 0x3ccf9517be8471c0U, 0xbe3258a0bde02acfU, 0xbdf10c003e019805U,
  0x3e258d76bdca49c2U, 0xbe5195d6bde3470eU, 0x3db4bb72bbeb68c4U, 0xbde7f0063de1695aU,
  0x3df8ecc2be27f64cU, 0xbde683803d1ad6efU, 0x3a3228d5bd2c2997U, 0x3e2d1a2bbe36a5f2U,
  0xbe1ba1023dae027eU, 0x3eb1d64c3b709dd3U, 0xbde60682bdabcd8eU, 0xbd9db3423e13b041U,
  0x3e376b853d422aadU, 0x3d7c84ee3e1cd482U, 0xbd3bfaebbd39aba0U, 0x3d6cec9bbe858a59U,
  0xbbc0988cbdaeeb9bU, 0xbd29a6a1bd99366eU, 0x3c965108bd9842d0U, 0xbdd7de42bbe91856U,
  0xbea471dabdae796dU, 0x3e3f281cbdcde990U, 0xbe706303be514995U, 0x3cbeed59be034f2bU,
  0xbe6070debe2a7013U, 0x3e357934bd832dfdU, 0x3d7571be3d8fb30eU, 0xbc0120a6bda44d97U,
  0x3d0eb004be2541a2U, 0x3cf0e75e3d2c15cfU, 0xbd7e4af23e83a855U, 0x3d2c463e3e217cffU,
  0x3d7910ed3d262e3bU, 0x3d0eb9eabd03b067U, 0xbd271bb53caff72fU, 0xbe399894be070082U,
  0x3e26f50d3cc0f8b6U, 0xbe1b9d2e3b57d86aU, 0x3e515b7c3e87b007U, 0xbe2cd683bc2bd562U,
  0xbce44a433ce1d5beU, 0xbe05c0dc3e227120U, 0x3e3975913e4b6b29U, 0x3e5e736a3d6dd432U,
  0x3df166593e2842beU, 0xbcd5445a3df5d6b9U, 0xbe8ffa0ebe54a189U, 0xbdf3f0e83ccd340aU,
  0xbc5d86483c7066dbU, 0xbd1696cbbd7e470dU, 0xbc97ff74be03bc3aU, 0xbdb578a8be4b1293U,
  0xbcf9d13abe0c925dU, 0x3da676963ded2943U, 0xbe6a3052be10279aU, 0x3d354f3d3dd6985aU,
  0xbc3d9dcbbd0f1ba4U, 0xbe051ed63ecf5756U, 0xbe6cb7bbbc826a87U, 0xbef995293dd54d09U,
  0xbc950d2e3e871aa2U, 0x3cfd18f33dcc9f60U, 0xbe5cbe3cbc7d8541U, 0x3e1eeb043e2dc411U,
  0x3cbc4c72be4d07fdU, 0x3e760f5d3d924f72U, 0xbdd76868befe826cU, 0x3e5e4910bdf76124U,
  0xbc0b300abdb387c4U, 0x3e6ad7003e123758U, 0xbdc4ddf5bdece2a6U, 0xbe39e60cbe70755bU,
  0x3ea2cda83e581cd1U, 0xbd0b65433d0ace1cU, 0xbed783e93db0e538U, 0xbdb4b06dbd1825c0U,
  0xbd90aff4bde64c47U, 0xbe75520fbe4fe877U, 0xbe133dc5bed4473eU, 0xbcc36e60be1b21a0U,
  0x3de20e963dce0fe8U, 0x3d8de60f3df75fb7U, 0x3e33f598bd5ddcf8U, 0x3e1c5400bda440e0U,
  0xbde5c21a3e0a6a00U, 0x3db99e153cb47a39U, 0x3dd313b13e39c287U, 0x3e7d5ef03cab59fbU,
  0x3e8916a3bdc27ca8U, 0x3db967dbbd572948U, 0xbd8c3efebe564155U, 0x3e4076bd3d12eb02U,
  0xbd638e9dbe6d397cU, 0x3df7a6bbbe6ea370U, 0xbd0b945dbd8570cdU, 0x3e099afdbd5d9bffU,
  0x3c9644063d6bd846U, 0xbe5d041fbe0e9371U, 0x3e22f1c6be039669U, 0xbdacd9edbcfdb7b5U,
  0x3e2c5921be134a82U, 0xbe94aeebbd01b5b5U, 0xbcf039613b02f90cU, 0x3e0eb7b43d441df5U,
  0x3db45578bdfbea7dU, 0x3d2b0de3be19ae0bU, 0x3ceda4fe3de1c8bfU, 0x3e365f33bddf3247U,
  0xbc73700e3e380eb8U, 0x3eaa51293e178c3eU, 0xbeaa7608bbd1bbcaU, 0xbe424bef3dbda74aU,
  0xbe2f4a12bd5bae69U, 0x3dff3757befbec34U, 0x3e3c25d1be0bc6dbU, 0x3da94d343ced4e64U,
  0xbd96470b3c585fc2U, 0x3e999ad5bc59618bU, 0xbe3ae61d3d755b65U, 0xbe6973b53e06477fU,
  0x3dde8eb93e0c50b5U, 0x3d22f3c83c029b0dU, 0xbde19285bea95f7aU, 0xbe601e58bc9cf6caU,
  0xbe01baca3e83b31bU, 0x3e8247803d026c1dU, 0x3e3d7469bda3fb2fU, 0x3d9269383d01e62bU,
  0x3e061b07bdc7b3b0U, 0xbe0c598e3e2c644dU, 0xbdea5085bcfffe05U, 0xbde39aedbe6d8d8dU,
  0x3bd8dae1bcaec65fU, 0xbcd2618abda5b2d8U, 0x3e1d7a35bd8f7113U, 0x3dc37448be1a63e1U,
  0xbe563471bd0dd4d5U, 0xbe893019be9b4463U, 0x3c7ff3573d402ee4U, 0x3e45765e3d6bc4cdU,
  0xbc92da443daf5a7dU, 0xbe1e62183da710a9U, 0xbd94d14e3db03a6aU, 0x3d06de32be5b8434U,
  0xbe36f35dbdc9f24bU, 0xbeba336b3e2c9318U, 0xbe3292743e74a08dU, 0x3da66bfbbe204499U,
  0x3e3212dd3e63cf85U, 0x3e6e00f93e7f0962U, 0x3dd523c6bd4a866aU, 0x3da598cc3b9a1463U,
  0x3ce7cbb7be1e3e8fU, 0xbd50d8c43d1c0933U, 0xbe53a0413c63481bU, 0x3e5edfd6bdcd3f82U,
  0x3e2253ee3da8de6fU, 0x3cf224b33ddc0ba4U, 0xbe52e60cbe67db4dU, 0x3dc4f1843d60d681U,
  0xbeac7d2a3e7203c6U, 0x3d16e1c23c993e38U, 0x3e50f26c3e4634f5U, 0xbdcf933bbddf3d78U,
  0x3d15cf113cfeb40bU, 0xbe93b5773e94db55U, 0x3df9886b3e2f97d0U, 0xbd50d29a3db36676U,
  0xbcfe0cfa3d0b16deU, 0xbd977e033cf1a239U, 0xbe23745bbe238a46U, 0x3e58bd533d2f399dU,
  0x3e0df5f5bbc85461U, 0xbd56abcfbe1ddcdfU, 0x3cc2c104be8f59f3U, 0x3e39df733bff2102U,
  0xbe5f9214be81a336U, 0xbd4431fdbb1b13b2U, 0xbd73dc9ebe440e80U, 0xbcb1735d3e3be1fdU,
  0x3e5038493d702c6cU, 0xbc1b255dbdf27bfcU, 0xbecade34be1be5ecU, 0xbe15db933e0b3ee3U,
  0x3caecfa4bd0204e6U, 0xbe0e878dbe39c8f7U, 0xbdb0e43bbe01bd64U, 0xbd128eac3e25aab4U,
  0x3e1a25203da5d7b2U, 0x3daf6b88bd915788U, 0x3d3d85403defb765U, 0x3ceab6ed3b9bc12bU,
  0xbd8ec53b3da0fe47U, 0x3e109551bdf26e89U, 0xbe462a4e3e277f90U, 0xbdf70c9f3e40e8dfU,
  0xbdf764c03dd4cf9aU, 0xbe01a66dbea8f43dU, 0x3e017d3f3e0ab753U, 0x3d375ff43e694bffU,
  0xbe3774f9be9833faU, 0x3e2ddda83c368d5bU, 0xbdc6e3c33de1e469U, 0xbe12a924be50a1abU,
  0x3e863f07be17e193U, 0x3e1d16d7baa75e00U, 0x3e9ac8b2bbacc1b0U, 0x3e25a769bdcef69fU,
  0x3e3faf25bd3063d7U, 0xbf051e9fbd861131U, 0xbc8f9c27bb8c65c4U, 0xbe0d0087bc9a934bU,
  0x3e99f0ffbeba3c46U, 0xbe403bf1bd822b35U, 0xbd42dbfdbd572ee9U, 0xbe6a5945bb9ffc66U,
  0xbd2d02cdbd0db8aeU, 0xbd0aab113e4c652bU, 0xbe0db41d3d9c4f5fU, 0xbcbe37eabc0cb507U,
  0xbd4e36a83e420108U, 0x3ea1cd72bda885dbU, 0x3e819adfbbe48da4U, 0xbe6c13223da22157U,
  0x3d5549733b9f7552U, 0xbe4cec03bdac31a1U, 0xbe02a3443ddf2600U, 0x3e009d7c3e1dfee5U,
  0xbd8fc0353e02ba4fU, 0xbda385293d5ea529U, 0xbeaab1423d941423U, 0x3d8e8982bdcdddd0U,
  0xbe977c163dd2fb18U, 0xbe5c06983de5c895U, 0xbe45d2e63e2daf1aU, 0x3b9b0ead3e1bd4d7U,
  0x3c8bbc96be2d3c4aU, 0x3e071d4f3d867c81U, 0xbdaf0888bc4fc22aU, 0x3d9f6a2e3d5c66d9U,
  0x3dc0097cbcb29f7eU, 0xbe0891db3cca3ea9U, 0x3d22acbb3d978618U, 0xbceb5d01bd7c60deU,
  0xbe8f160ebe1bf77dU, 0xbe1300743d247cd4U, 0x3d12cd1ebd8e837cU, 0x3d7c343cbc8660a6U,
  0xbd88dd2a3e62d2ecU, 0xbe4158d7bc37c8ccU, 0x3de456e23df1d337U, 0xbdb2cadebd0a840eU,
  0xbc0423a73d33555dU, 0xbdcca6f53db696acU, 0xbd903b04bcc816e8U, 0xbdeb286bbddc5de9U,
  0xbd2344b1bd3ae8eaU, 0xbdd9ce1c3e88fedeU, 0xbeb645903e4a436aU, 0xbd003ade3dd1ac86U,
  0xbe20987b3dbce3d4U, 0x3e5fa15fbcd00df5U, 0xbe150b3cbe59f536U, 0xbe0ca435bd3211b5U,
  0x3cc0e347bded9998U, 0xbd4f889a3e4416b1U, 0x3e8248033dad4c33U, 0x3da45c2d3c82b28cU,
  0x3e30b0d73d8ceb8fU, 0xbde43ba4bdb44173U, 0x3e0cb8a7bdf9ef6aU, 0x3da23c0b3d58bbb7U,
  0x3edf4fdb3e02ee54U, 0x3d9cdcb93e7a510aU, 0xbe2a382e3e070decU, 0xbe3601e3bde49201U,
  0xbd87c1c3bdae9b5dU, 0xbe16a5093e58897bU, 0xbe0b9b70bbf4b0d3U, 0xbe3f534cbd94e665U,
  0xbcada8a7bdec5762U, 0xbeeb2687be685695U, 0xbe20ccfb3e492762U, 0x3e08571f3e2aff27U,
  0xbc19cac83d02c2ccU, 0x3deb61bebd018f7bU, 0xbdfc8ae3bdaf39cbU, 0x3e639a963d90a21eU,
  0x3e27a93d3dc9813eU, 0x3d53e0e03e379d65U, 0xbe41bcc73e3134cdU, 0xbdba958a3e252c1dU,
  0xbd907aaa3e40cbcbU, 0xbe03ec7c3d4a7334U, 0x3de6c0b33e297d2bU, 0x3ccbb1733d182d05U,
  0x3e887bc8bc998909U, 0x3de13ec9bd552c5cU, 0xbd759603bbe4aa0bU, 0x3ce2727fbe08ef29U,
  0xbd92b993bbe656c2U, 0xbdfd187f3c397d80U, 0x3dc09c9d3e94dc11U, 0x3d3f25f5bd820f28U,
  0x3e9f607ebd753951U, 0xbd47e5983d55a0c6U, 0x3e7a309cbe148e3dU, 0x3e0e661d3e93dd10U,
  0x3da99b1b3dde4ef9U, 0xbec5dd213d9ade6cU, 0x3e3e5953be7dc307U, 0xbd9315783dae1ca6U,
  0xbebb5c2fbc8d9312U, 0x3d9a31bebdca19a1U, 0x3e82a3743cc48a33U, 0x3dd92e82be6819b6U,
  0xbdda94dcbd0492fcU, 0x3d984efebceb5e43U, 0xbdbb7472be12d414U, 0x3ed804913dba232fU,
  0x3d9160243da96271U, 0x3e2a946fbe0e5059U, 0xbe46b32cbcd99d6fU, 0x3d9aabd4bd99f578U,
  0xbde10bd5be0ee8a9U, 0x3e3fc8d93d85a2a3U, 0x3e185dcd3e327f4fU, 0x3cddf29fbdf9ec26U,
  0xbe4aa31dbe1ff5e7U, 0xbc9a76debe34d76aU, 0x3ceaaa36bd873dc1U, 0x3dc591103e112e2bU,
  0xbdf220cbbd413d35U, 0xbb9246563d7d5819U, 0x3d164a863a13ba5eU, 0x3e7b90ec3e21de93U,
  0x3dc0bce6bd9926e9U, 0x3d0e6fbb3cfeed64U, 0x3e247cf2bb596e83U, 0x3c96bb56be186317U,
  0x3d9b7c64be22a702U, 0x3dd6cdd9bdc416a7U, 0x3d9e1375bdc0fc3dU, 0x3deb472d3d14b1b2U,
  0xbe16a08cbe599b25U, 0xbe2123cb3e19796eU, 0x3b74d570bde4c6b1U, 0x3d790f453dbf948cU,
  0x3dd847583c5c1496U, 0xbdf3e561bd1b0e9fU, 0x3dc5a3c73d3c9918U, 0x3c024cc0bd80fc4bU,
  0xbd3a4e953c3f49ecU, 0x3ca8bb6c3d6d4286U, 0xbe123e85be3cc6edU, 0x3de445003a5e7fe8U,
  0x3bf526cf3e35dfc0U, 0xba93c023be0c2314U, 0x3e38f9d3be1444c8U, 0x3e4be3343e0bfe4dU,
  0x3c950255be139215U, 0xbe107c093dcb0620U, 0x3e29472abcf7385aU, 0x3e261a77be5ef63cU,
  0x3de0f7793d23b3fdU, 0xbcacc06c3e314565U, 0x3e39492fbe1319c1U, 0xbdeb4c443d5446fbU,
  0xbdb1e6173e03d96aU, 0x3de8d3583db95acbU, 0x3da35fe53ddc4354U, 0x3e0e5fa3be29b654U,
  0xbe58680dbd2ee938U, 0x3d340bbebdd82974U, 0x3e5f2ab33e178379U, 0xbe122832bdae4b9fU,
  0x3dc9e2de3d360281U, 0xbe5803d9bdfc1799U, 0x3d09fbb2bdbb077dU, 0xbe0ce2113bc6d845U,
  0x3e8e943fbadac391U, 0xbe232a54be1ea033U, 0xbd34a6633d5c73a3U, 0x3e6d75c33ce78550U,
  0x3de4762bbc9951adU, 0xbdcdf4373e0a56c4U, 0x3c5c3e0d3e69f2e2U, 0x3dcfb210be03c2a4U,
  0x3dcc6b82bcf143bfU, 0x3dbe2169be0361cfU, 0x3e0281873d0e0d81U, 0x3bea5b1ebdb4561dU,
  0xbd6a8fd23e074dd9U, 0x3d44c4ff3dc55bcaU, 0x3db82704bd982d32U, 0xbd382482bc61460fU,
  0x3e60261ebd7d001bU, 0xbd8dfc0b3dc97ef5U, 0x3d1128733daadfa4U, 0xbe25fb953e1af1d5U,
  0xbe786e1ebd9138aaU, 0x3cac90ad3e48f8f7U, 0xbd018e76be53dcecU, 0xbdba7d89be74854dU,
  0xbe4a2676bdc5d1deU, 0xbc9580d3bdb0bf24U, 0xbdd26d453cf77cbfU, 0x3e98b1e1bdf499d2U,
  0x3dade3e0bd907dacU, 0xbcfcc42e3dc693d3U, 0x3dc8e46a3c8afc2fU, 0x3ce502edbe16f4cfU,
  0x3e9a5c9dbe01692cU, 0x3e06e7d6be304176U, 0xbe68ae363e73b895U, 0x3d2ad465bd389938U,
  0x3c90d0c63ce9677cU, 0xbce456f43e2e3826U, 0x3cecca2dbe3f6d55U, 0xbeb1d9533e1b8b5dU,
  0x3cb20a50bba94f67U, 0x3e306d52be37f686U, 0xbd088fc8bd1f5605U, 0x3ddf05183d586e0eU,
  0x3dca9ec93e0d55dbU, 0xbd5a7e34be8e5e82U, 0x3da041e73d497c35U, 0x3d96b1ea3e972e05U,
  0x3d9b7a53bc9abdefU, 0x3e05188a3e23b592U, 0x3cd383253e5b81c5U, 0x3e80f153bd89a05eU,
  0x3db0227dbd91f1b1U, 0xbd4cfcff3dce4150U, 0xbcc674393d259848U, 0xbe28eaf03d7ccf7aU,
  0x3dd9c7ce3de0cfe2U, 0xbd9ffd9d3e4b1ce5U, 0xbd3d82a33e1860b2U, 0x3dd4ca38bdf155f7U,
  0x3e1714b03e179e61U, 0xbbe1eba63e5fbecaU, 0xbd8bcbc6be1fbe59U, 0xbd1b1c22be048051U,
  0x3d233d4bbb64342fU, 0xbd94299cbbf4ad75U, 0x3daac19e3d80f24eU, 0x3d75d2a83e338c0eU,
  0xbe3287d73aeece4fU, 0x3d884d743dea8d86U, 0xbdffbffe3c9fa0c9U, 0x3de591af3deee93eU,
  0x3d0912353caf4141U, 0xbd9b2ef5bd79c8c8U, 0x3c33fefa3e3d43ccU, 0x3d10104e3e05d388U,
  0x3e0a26a63da77be2U, 0xbe8f78ac3ef7529aU, 0xbdbf6fc6be29b3c4U, 0xbd83eaad3c8a9670U,
  0x3ebc65193d229498U, 0x3d9a35cfbde2aec8U, 0xbd88d7f83df77f87U, 0xbe0de973bd442816U,
  0xbe0e6e7abcc1dfc3U, 0xbe6c6d0fbe920092U, 0xbe401c283e81266aU, 0x3ba6dc443e54d3d5U,
  0xbe04f1bebdb93739U, 0x3e0bc3753d45ea81U, 0xbe0764a33e376c33U, 0xbe8c597fbe7b144fU,
  0x3e5ff9f0bd1d0bfcU, 0xbd9bccbb3e03a2c5U, 0x3e571d65be995e81U, 0xbe0b33dabdadca77U,
  0xbca31c453dbde1e1U, 0xbe99d4b23eb80966U, 0x3cd629c1be934022U, 0x3d96db86be390739U,
  0xbe2502a7bc96450fU, 0x3cbecdaebed454bbU, 0xbebb34a6bd126164U, 0xbdb6a69a3e1f6c80U,
  0xbdf23abe3d16dba9U, 0xbd68811dbd27a198U, 0xbe12bc023caf4d63U, 0x3d2a09b9bcc6570bU,
  0xbe095b8abe07d500U, 0x3d5c04973e2c362fU, 0x3dd61d3dbd8537a9U, 0xbe6af48c3d7b77efU,
  0x3d0734083e1e4853U, 0xbdd668c83e69e28cU, 0xbe0eb28c3dc868d2U, 0xbd5522273e8f1762U,
  0xbe17a98b3ba5493dU, 0x3dcd685ebe40e3d2U, 0x3e5639da3c6704b8U, 0x3e8504c03d460e1fU,
  0xbe804951bdd8f9fcU, 0xbe38b3cb3dda1aefU, 0xbdc39fae3e244416U, 0xbdbc2f173e2d4616U,
  0x3d9cff543cc15854U, 0x3d0879383da38b9bU, 0x3d803733bcaeb2dbU, 0x3dc8d8753d4cde5aU,
  0xbe518097bd25c76fU, 0xbecbf1f93e933a29U, 0xbe043ba63deb6975U, 0x3e714b153df42839U,
  0x3e0c39cbbc832cd8U, 0xbdaacaef3d358710U, 0xbe17741cbd18fd90U, 0xbda3ac65be16fc5dU,
  0x3e1b15b63e1cae8aU, 0x3e058ae2bbf4baaeU, 0xbd8926033dcd4fa7U, 0x3deb98e9bd12bc2eU,
  0xbe43f84d3d54793fU, 0x3d5d16dfbcdbf11dU, 0xbe6709053db06ac5U, 0xbd86acbcbe342c8cU,
  0xbd4d3afd3b03022aU, 0x3e0283bc3da1ed83U, 0xbe4a84c63d1fceacU, 0xbde5caa23e0fcd0cU,
  0x3e2349683df57b4aU, 0xbd9cc1ac3e1490d9U, 0xbdca4d7b3d99258cU, 0x3e1c9fb1be3a040cU,
  0xbd5f9de63c4ba909U, 0xbd01b4babdbde9f4U, 0xbdb1820b3e0e25a8U, 0x3e1356123dce74f8U,
  0x3e0183443e1e4af0U, 0xbdbd45bf3e30af91U, 0x3d9a5fab3c9de138U, 0xbe1264ccbd86bccfU,
  0x3dc9be16bde996a3U, 0x3dbb2d8a3ded415fU, 0x3c52775c3e3c054dU, 0x3ded736cbce8c26bU,
  0x3d832da43dc84f3cU, 0xbe393a47be3156c1U, 0xbd3c6c223b938359U, 0x3da61afbbce7f981U,
  0xbd8f6136bde5a405U, 0x3d9e4f7e3c7f68afU, 0xbd87630a3dd4e126U, 0x3e2e02413e38d130U,
  0xbd04c18c3cc80ca9U, 0x3e06eb983e0d70ccU, 0xbdf05134be3ac11cU, 0xbb63fb903e1f9596U,
  0x3e2dbeb3bd649066U, 0x3dce5b1cbec1422bU, 0x3db801b2bc92f5a0U, 0x3e836a653d52324fU,
  0xbdeb8f143ccd304aU, 0x3ddcf1033e5cd459U, 0x3d46a9483d839f0eU, 0x3e01eab43daaf16cU,
  0x3db40dbdbd6b6fc9U, 0x3d104c88bebd60b6U, 0xbd8cd7213e6993ddU, 0xbc781bc6bda1bf19U,
  0x3d1d50c53dfdb774U, 0xbed82aea3d056b6aU, 0xbdd3c9bf3dc6ec59U, 0x3dfed13d3c0389cbU,
  0xbeccc3b53e2eb65fU, 0x3c7c77563d46f247U, 0x3e0d04973e5f4e42U, 0x3e26b011be06c738U,
  0xbc8b8629bd5df237U, 0xbdd5c7083e4a2087U, 0xbdc170133de73d4eU, 0xbdbc6c803d2a8819U,
  0xbd3ffb4c3d62cd9aU, 0x3e073d983cddcb65U, 0x3d6ce11fbd39dc24U, 0x3dea733b3e3618fdU,
  0x3e266a44be246c0fU, 0x3df6dc93be3b720bU, 0xbd581ad6bd14c246U, 0xbe3eea54bde73d4fU,
  0xbe60003a3e934f55U, 0x3e5fb71ebe1a3939U, 0xbc61168cbe0e42adU, 0xbc90bc18bdbe7e55U,
  0x3db95e283e123d25U, 0x3e001752bc1373b9U, 0x3e00baa2bea6d6cfU, 0x3cabd168be69fd9aU,
  0x3e89bcd73cf3659aU, 0xbe0ac0febd133b82U, 0xbd85cb88bc7cd007U, 0x3e175315bc0b473dU,
  0xbde377ac3da97c30U, 0x3e8d7cdfbd96901cU, 0x3e087a92bced9759U, 0x3e136b3cbdcc0453U,
  0xbe70c8e43e38677aU, 0xbe023d75be6413b9U, 0x3e1572f43da2cc14U, 0x3d69af343eb642dbU,
  0xbe8c41be3cce38f2U, 0xbe8fc9593db0ae73U, 0x3e4684de3e2a3341U, 0x3be4709bbcf3aadaU,
  0xbe28a432bcd38701U, 0x3c5db0fa3d8a7f07U, 0x3e8d0a813e04def4U, 0xbe2631e03d6b3ce7U,
  0xbdf92af23dac5843U, 0xbeb2db4f39d83842U, 0xbc9e6cc0be4c686dU, 0xbcb5baec3ce0e844U,
  0xbe0d39d33dae66d7U, 0xbe3b241abe8c6cf5U, 0x3f3000253df3d2f6U, 0x3e5c66013d0235acU,
  0x3eea7a603d289ba4U, 0xbd9350acbc01bbffU, 0xbe3882ff3dda909eU, 0xbe8f929d3e8b862bU,
  0xbe27b3b9bce61034U, 0x3d4a8d4dbe3bbd9aU, 0xbd2b96aa3e7b29c0U, 0xbd71091bbeb43f25U,
  0x3dd760dcbe8751b0U, 0xbc88b5103dd9de67U, 0xbbec8eee3e300e06U, 0xbe9aa9463d3ac9edU,
  0xbe8c1350bbbc6289U, 0x3e734242bd976e70U, 0xbe1b2edcbcdb7f6bU, 0xbd8275ff3cd8d49aU,
  0xbcf1b5b23de11d2aU, 0xbe54cc8ebd7aee33U, 0xbdf51f96be1615ddU, 0xbe24a2d83d8b5b86U,
  0x3e09cbe3be03cf89U, 0xbe0c3079beafc7edU, 0x3ddaf0513d532286U, 0xbe6822193d4ea47aU,
  0xbe3fe2163dfa82b2U, 0xbe169712bf2e6c9cU, 0xbe45bc0ebe5366deU, 0xbaf2c4bebe8671a4U,
  0xbe657900be85e8dbU, 0x3e34f787bd31bd3cU, 0x3e85f097be401512U, 0x3dacb76f3de2d9d3U,
  0xbcd07b443c17dda0U, 0x3e8cd5ad3c0ab0d0U, 0x3eaaea97be476522U, 0xbd872083be65d256U,
  0x3df30a053c86b522U, 0xbe976c843cf8c68fU, 0x3d845deb3e368e91U, 0xbe4712103de462daU,
  0x3e5f251dbc83ae62U, 0xbd85dbf3bd0d986dU, 0x3b9b4dc53d89bcdcU, 0xbb00bcecbcf8c52eU,
  0x3e38f67e3e36a56cU, 0x3e5b1bfb3d8eca14U, 0x3d44e59cbd214d09U, 0xbeb0d1d1be1f62a0U,
  0x3e24f995bdc049e1U, 0xbe0a795cbdaae2f7U, 0xbf058525bd680881U, 0xbe9f622d3dea92eeU,
  0xbe4e87aabc17eb31U, 0x3e1232a2bdeb3ba5U, 0xbe69b9043e4a5677U, 0x3b12474cbdc5f772U,
  0x3e1819283e3f1c26U, 0x3e0967b73e084801U, 0xbd96dfb5bb8226a0U, 0xbe0b1fff3cdd9299U,
  0x3da88476bdd790faU, 0x3e39ea943e4b5534U, 0x3d931af6be307209U, 0xbea9f00fbe1b6b63U,
  0xbf153f87bd560fdeU, 0x3dd583d43c8a5d39U, 0xbe10a9b4bdbf13f7U, 0x3df3c4e0bdf4ba57U,
  0xbc0c563abf046167U, 0x3ecc65b83d804fbaU, 0x3ecd3cc8bdaa14d6U, 0x3d79f46c3d909d65U,
  0x3cbc1d1ebd882a21U, 0x3c1464abbe000202U, 0x3e185e87be79dc89U, 0x3cc7578b3e5acdbaU,
  0x3d915e0d3d943049U, 0xbe05e95e3da298acU, 0xbe864b46bd8d8afbU, 0xbdb54cef3e95d7abU,
  0xbddfe7aabdcdb4b5U, 0xbcba7b9ebdd31852U, 0xbe1c26cebe4229a3U, 0xbcc3f2cebe3c62dfU,
  0x3c77d2523cf0da50U, 0x3e0302ac3d06dff8U, 0xbe7e3ecf3b62a9c8U, 0xbcf7e85e3c72ed48U,
  0x3d2336adbe7df0caU, 0xbd9c35aa3de77287U, 0x3cab76c0bc82664eU, 0xbe244e1abc814e8dU,
  0x3c74e0cd3d2fb7f0U, 0x3de880db3dbaeea1U, 0x3d5dc38ebe70c8d7U, 0xbcfe6f123e1f1754U,
  0x3d89bff3bd486507U, 0x3e6a5076be135283U, 0x3d42a39cbd94d979U, 0x3dc50ca83dd8035dU,
  0x3e4ba12a3eae40c3U, 0x3e2fe23bbe582563U, 0x3dde45003ce89a07U, 0x3e42998b3eb8d75eU,
  0xbdc310c8be1cbb74U, 0xbe7b03f5bd933790U, 0xbd8a94ce3c9a275cU, 0x3b99e7ff3c914b6eU,
  0x3e117b7d3dbe4f6aU, 0x3e350c173dd9c51aU, 0xbeb64b4ebe7edb37U, 0xbe4a6de4be11f83fU,
  0xbdc732be3cacc004U, 0x3e3d00913c86752cU, 0xbd6f03d63cfa836cU, 0x3e51a68a3d510a60U,
  0xbd0ea9e63d5247f3U, 0xbe27fe8b3e2815dbU, 0xbdeb6df03cb08d11U, 0x3e0b1d0d3dc4827aU,
  0x3e12d453bed41312U, 0xbe00de753da188dfU, 0xbe1b96073db25658U, 0x3e60e658be203ec4U,
  0x3d864752bd6d59b5U, 0xbe1fd3f2bb909154U, 0xbe0cb3cfbcefc02eU, 0xbd4c83b5bcaef5ccU,
  0xbe1c54c2bba87014U, 0xbd82d046be1f2471U, 0xbd071e243e1d1763U, 0xbd93eb5fbe07fa21U,
  0xbcb98ff93d1dd850U, 0xbd81a3f93e2ecbe2U, 0x3e1fc123bf047cddU, 0x3e29ed2b3d7a4c7fU,
  0x3d3e8749bd594674U, 0x3e1f965bbe2ff3afU, 0x3d3ae6323df77ed7U, 0xbd0b7c10be5b783fU,
  0x3e32382e3e9a7309U, 0xbe93d38b3cbd071aU, 0xbe4a2083bca8a014U, 0xbe8bd9ae3e1b6941U,
  0xbdf894203e288274U, 0xbe9e94453e3b2251U, 0xbd568f373d726406U, 0xbdb6e6493e1e1fd2U,
  0xbd47a7523da0446dU, 0xbd71128b3cece379U, 0xbe4c41533d5c80f3U, 0x3e12bddd3d6e8677U,
  0x3dd954c7bcc08654U, 0x3d28fb9bbdfe41b9U, 0xbe0c79353cf39342U, 0xbd5914debdfaefb3U,
  0x3de683a5be05feb4U, 0xbdad292b3d2ebb8fU, 0xbcf1ee533d3061c8U, 0xbd072e51be69ad94U,
  0xbd0c5195be615eacU, 0x3a4414d63e4097e0U, 0xbdf42b19be123a37U, 0xbeb5b7c1bd975a92U,
  0xbdba6a0cbda9347fU, 0x3e101ef63e170425U, 0x3e2bb72bbd938a26U, 0x3dd164b83e468346U,
  0xbea90065be01a64bU, 0x3e0def9abe14ef81U, 0x3d12c93c3e0a6b94U, 0xbe0996373d118b7dU,
  0x3e3e02c53d69c8e7U, 0xbd8d52dd3d0424fbU, 0xbc70089bbe5b0706U, 0x3da4b5fbbe2e2f20U,
  0x3c9048e43e1203b0U, 0xbe256492bdd5b105U, 0x3df23e13bdb89ea2U, 0x3d660ccfbe202a0cU,
  0x3e1d10dd3e47935dU, 0x3d45d9a83dcdeda0U, 0x3d8962913e5560a1U, 0xbe40e4a83d77fc59U,
  0xbd7961e7bcca15ecU, 0x3e6d2d123dda25b0U, 0x3da4613ebd8aebd1U, 0x3d03a74b3e6b77eeU,
  0xbe9de5e2bdc8bd75U, 0x3d3148c3bd6c014bU, 0xbe1797f33c509479U, 0xbddffd1dbe5ca91eU,
  0x3dafe0e6bdd42e05U, 0xbe49e0fc3dfe0fc6U, 0xbe847d1dbe581dabU, 0xbe197b073cf73f6cU,
  0xbe48016fbda0c28aU, 0xbde0d7863e144c29U, 0xbd87f35dbbdc0520U, 0xbd9ee8cbbdc671c9U,
  0xbe1ed0733d110ffcU, 0xbd6769b0bd754e5dU, 0x3da8f5883d7be656U, 0xbeca2f39bd8c10cbU,
  0xbe02c3ee3d1e40aaU, 0xbe1170de3df867a5U, 0xbded476c3cac32e5U, 0x3ddd292b3dcf2be0U,
  0xbe46f6203dd2fa52U, 0xbd6824be3e51921dU, 0xbe3a6ed53c0f49b0U, 0x3e0883463d3e769bU,
  0xbce2a8563dec4ba4U, 0xbd8373a93d48fa91U, 0x3d2c6c82bdac1df1U, 0xbdb19090bc64cadbU,
  0xbd26feae3c4198bbU, 0xbe501e383dfd9dcfU, 0xbc60052b3ea66050U, 0x3c5a2eadbdf8fffbU,
  0x3d327e64bd9c36efU, 0x3e4442d9bc74e754U, 0xbe01e545bddf6613U, 0x3b69ba36bda1555eU,
  0x3d96f330bdbae7a1U, 0x3cd9758d3e8d1035U, 0x3d30a6073d955f5cU, 0x3e2d800dbdc33f4cU,
  0x3c9c87b63d78757cU, 0x3e40d1333cf57cc0U, 0xbdec410e3daa3a93U, 0x3da937c5be02aa2cU,
  0xbe8a8d9a39de2049U, 0x3e21c4243d77cd62U, 0xbe8f09acbdd04340U, 0x3d8f11e33cd39919U,
  0xbe24eaf43e522d3dU, 0x3d105f49be37544aU, 0x3d7d083c3aacc818U, 0x3e0457733e9447a2U,
  0xbd8eaa783a9ccb69U, 0x3de42e473e6364c8U, 0x3e184c98bd5f24c4U, 0xbd96567ebda567d5U,
  0x3e030dc3be569fa2U, 0x3d9a9de0be482e85U, 0x3c3fa5f13dcd1772U, 0x3d93efd13d87cffaU,
  0xbce81a663e35cf51U, 0x3e3fe5df3d37ef00U, 0xbd8c4c77be0b2f45U, 0x3c68be643e0e8c01U,
  0xbda5eafd3d08bba0U, 0xbd864358bcd6caccU, 0x3cb3d17b3de026adU, 0xbdc9eb463dc89f34U,
  0xbca059e6bd82a552U, 0xbd3b52e0bdc1b2f5U, 0x3cd6035bbe367541U, 0x3d890098bd0727d2U,
  0x3cf65e423c39efc7U, 0x3c94dd553d9e4c60U, 0x3e3b033fbe33aa7cU, 0x3e6684bfbc145a21U,
  0xbddcbeef3de20c2cU, 0x3dcc0d87bdb91be7U, 0xbe8b357dbe3508e3U, 0xbd2f10f6bdb89842U,
  0x3e02c781be9bc95dU, 0xbe0cff163bb55871U, 0x3d9b5e39bdea9152U, 0x3d1d5ef6bd6d884fU,
  0xbe08a119bdaf9638U, 0xbd71d5ebbe2c7f72U, 0x3dd880ca3e844007U, 0x3d70018cbbe895afU,
  0xbe583b593d4f2300U, 0x3e5db97dbe123a72U, 0xbd498b6cbe89ba2fU, 0x3ce68aaf3de72be5U,
  0xbd947edb3cb2a7d4U, 0x3df82494bde3567cU, 0x3e1032ac3c166bbcU, 0xbcd113f93db3dd87U,
  0x3d491fe53d98ce67U, 0xbda6c000bd046592U, 0xbc4b3a0fbe3e8518U, 0x3e11937b3e0912f2U,
  0xbe9b28ec3db3d347U, 0xbc8002203cd9cc06U, 0x3c8a146fbe1e7c54U, 0xbc229bbb3e422020U,
  0xbdcd7e463c7f0517U, 0x3e3e9407be8d5bfdU, 0xbc83203bbdda2e06U, 0x3ce04aadbe4c6be0U,
  0x3be91b403d941d4aU, 0x3e697cd1be4c8984U, 0x3e0840483dabadeaU, 0x3c31f0e83da5aba3U,
  0xbe4dddcebe2aac29U, 0xbe105b27be68eb8cU, 0xbca970a33e114e1bU, 0xbdb16d6abe80f28eU,
  0x3c8bf11abeca5babU, 0xbd6e3fdebd08bc07U, 0x3ded636b3e5f870aU, 0x3e4568a13d39f928U,
  0x3d956f4ebd74dcfbU, 0xbe3e5563bd8a3e23U, 0xbc842789bd388d8aU, 0x3da6ed9e3e427f81U,
  0x3d9bd75e3dff885fU, 0xbe78364dbd384e40U, 0x3dd6bf33bd93125aU, 0xbce636283c02fc58U,
  0x3e0925a6bdd1d1acU, 0xbcd8490e3e162569U, 0xbe3856063e1d1997U, 0x3e0459ad3e5f7b26U,
  0x3e3e39ab3e08eddeU, 0xbcf6414bbde9cb84U, 0x3e3f6029be77f414U, 0xbe8a6902be20a1b2U,
  0xbe43fb54be88ad00U, 0x3df56f91bd122ba0U, 0xbd4dfbdcbcff3189U, 0x3e441505be13c37dU,
  0xbe7306a43d12f428U, 0xbd2a96893c5cf6ebU, 0x3d17e64bbe8366ffU, 0xbdb83019be92e43cU,
  0x3e893bc9bcf6a48dU, 0x3e2955e6bd3cca0bU, 0x3d1e0a633d355d46U, 0x3e14684a3e4072d8U,
  0x3d337e3f3e5801cfU, 0x3e1cf2bbbca76ef2U, 0xbca8e49bbe867b3dU, 0xbe02eeb03dc951b2U,
  0xbe1e18a43e1fdeb4U, 0x3c764252bcc36d89U, 0x3db95b503e912030U, 0x3da66e0f3e387ff7U,
  0xbd0314e83ce6ca4cU, 0xbe25e199becc5e38U, 0xbe244ab73d597074U, 0xbde7be6abd7845cfU,
  0x3e49b4f33e41b3f1U, 0xbd8710433c86efa6U, 0xbc04efc2be6b5d49U, 0x3e3c94cebe240ef1U,
  0xbda2bb95bd1ffd88U, 0x3e1e52773eaa59dcU, 0xbc987e17bd42362cU, 0x3dd4f59e3e5fe306U,
  0xbd6eb423be507827U, 0x3e8219cd3d8785c8U, 0xbdb44e8cbeac134fU, 0x3dbbd1e2bb71ff5bU,
  0xbe1534273dbf91a3U, 0xbe2bc359be049af9U, 0x3da46f4a3dacc235U, 0xbdd2fe363e43b4b1U,
  0xbdfe859ebd6ec0daU, 0xbec8c484be309155U, 0x3e6a133fbd98cb8eU, 0x3e12a84dbe1d0558U,
  0xbdd9ac143db62316U, 0x3e02b78c3cedf2c9U, 0xbe03fd4b3d8b8b4cU, 0xbcd78a38be9341e8U,
  0x3d9cf47c3c89cbcdU, 0xbd0ee9e9bd4df595U, 0x3d257db9bdf36298U, 0x3c1c545ebe79ad91U,
  0x3ddf11593d40da3eU, 0xbe4d09d83d8f6539U, 0xbdaecabc3e3791ccU, 0xbe81cbefbe4145c8U,
  0xbd12142c3d8d5c9aU, 0x3e003cb73e1089efU, 0xbe9915b6be19b51aU, 0x3cddf70e3d20b1ccU,
  0x3e1c41183d92d768U, 0xbde33ff33e340fd0U, 0x3e5fcdf8bc8bb52cU, 0xbdbe7167bd2d2480U,
  0xbeaf890abe4e1a35U, 0x3d004a92bddacc84U, 0xbdc67d373e7a0043U, 0x3ddc0ced3dfbe145U,
  0x3e2ea4313de251e8U, 0x3d92f4fcbbf9ce35U, 0x3e11bcfb3dbe28d5U, 0x3e6fd5193e035fa2U,
  0xbe22dc3bbc656547U, 0x3dbb257fbe6be992U, 0xbc01f85d3dd3da31U, 0xbdfe7e23bd995356U,
  0x3dc6a60fbe5984eeU, 0x3e2130673eb0ef18U, 0xbcd47fd0bc0a5dfdU, 0x3e702bbcbe732a57U,
  0xbd7d3854bcf57a31U, 0xbde48ed53ddb6383U, 0xbd4664abbeaf583cU, 0xbd6e2695bd65113dU,
  0x3d8bb9e13de3dad9U, 0x3d9f08d03e2887f2U, 0xbd321eec3cbb5421U, 0xbe1e8ed13e2bdba9U,
  0xbdee2452beb0925bU, 0x3ca1fe90bdcd669eU, 0x3e829f8bbe1cacb5U, 0xbe7df4263d92a6cbU,
  0x3e45ffea39f691c7U, 0x3d296c97bd825c01U, 0x3e570bac3e2097bdU, 0x3d94ba0c3d6d54b9U,
  0xbe34b90e3e12aaccU, 0xbe08cdd0bd881f1fU, 0x3d7cd69a3e89a941U, 0xbea8b2403e20e885U,
  0x3dc6dfb3be2b56b0U, 0x3c06152abdac690cU, 0x3e37edf93e802bd1U, 0x3dbf8246be310decU,
  0xbd448e503dd24249U, 0xbdf829fbbd1d012aU, 0x3dd6fdc43e0ed447U, 0x3c07b1373dd51542U,
  0xbeab06423daa5004U, 0x3db804623e142708U, 0xbe0735353e35d174U, 0xbf0122f73e07905eU,
  0x3df137063c93aeffU, 0x3dd09a783a236dd9U, 0x3c92b393be0e3382U, 0xbda4944ebdd19d66U,
  0x3d2429ce3de2f0fcU, 0xbc5867e83ea2b4abU, 0xbc8f926d3cae6a44U, 0x3e17cb233cd85146U,
  0x3e1edcb0bdaf4391U, 0x3e0e6f81bedd40f3U, 0x3d59645abd9ce1f6U, 0x3e5509b1bcc3bc11U,
  0xbe5d14d23de08bccU, 0x3c9356a13e0eb787U, 0x3e57edaabe349e0bU, 0x3ca8005b3e14a62aU,
  0x3dad5ee0bded4ad8U, 0xbe5335e33e679b38U, 0x3dd39a4d3e1ecf06U, 0xbd46b041be597305U,
  0xbd2f892e3cfb9121U, 0xbdc3d1b3be9384f7U, 0x3cd9bf1abd3d8709U, 0xbcd34a673e031a9bU,
  0xbdb96f243c275b7bU, 0xbda1e907bdad8a2fU, 0x3da0a9afbeb3deabU, 0x3ea9d5353e7fe9d3U,
  0x3d5b71043d81ebc8U, 0x3ceb70ec3d254d10U, 0xbde689f53db2e113U, 0xbe150553be557d2bU,
  0x3e0a435bbdcedba1U, 0xbb948cd8bda7030fU, 0x3ca2d4dcbc30aae6U, 0x3dd9c246bdf108efU,
  0x3d966b59bd871360U, 0xbd9cdf89bd905928U, 0x3e18c2163d9f6d48U, 0x3c314815be208ea3U,
  0xbde4ac7dbe85e4afU, 0xbe4e607fbe5beb6dU, 0xbd25ebc3bde046bcU, 0xbe5211093e1814cbU,
  0x3e33f415be07528cU, 0xbd707141be234657U, 0x3e66e93e3d6bc704U, 0xbda878bb3e37b55cU,
  0x3ea43196be2a767fU, 0x3c4e9fccbdbca2deU, 0xbd9730b3bcc6dc3aU, 0x3da08738bddb752eU,
  0x3d76589e3d1884c1U, 0xbce09b5ebe608604U, 0x3dbfce9dbd78b548U, 0x3d9257b83d989a93U,
  0xbe6670183e3a6884U, 0xbe1213f5be0398ecU, 0xbe39823ebe00984fU, 0xbd98c801be1c481cU,
  0xbe1b80e8bdbebb86U, 0x3e839730be11bc7cU, 0x3dd0984c3d807574U, 0xbe5ac1553d0028a6U,
  0xbe1da3393d60a7e5U, 0xbcd3009f3e1b0086U, 0xbe1069edbdef440fU, 0x3e2308913e9e2d2fU,
  0x3e2169eebe556aa0U, 0x3d7dca153d3f9cf5U, 0xbdfee35abd03af4bU, 0xbd7ef41b3d8fd7cdU,
  0x3e05caafbdc0536eU, 0xbdd312373d7074bfU, 0xbded17533d3943e1U, 0xbd1a66d23e19bc28U,
  0xbe602d64be8266b3U, 0xbe4f2496be66ba71U, 0x3d9274b9be1ea72dU, 0xbe08c8ffbd3620f2U,
  0x3e474321bcd0ed59U, 0xbe889af7bd82f6caU, 0xbc9014adbe0666e1U, 0x3d517c9fbe887bc8U,
  0x3da2f719be053951U, 0xbdcd039ebd89e51fU, 0x3e29821bbe33708dU, 0xbe27511a3c7a950aU,
  0xbe5b6a2e3e1f02fdU, 0xbdccf320be751a1aU, 0xbd543c54bbda5e9eU, 0xbe0cf3ef3defc3d1U,
  0x3db20d8bbbb1c579U, 0xbe18f1033dbcbf3fU, 0x3e255f033e10a613U, 0x3d25cb363e85b7e1U,
  0x3ca054883c4b8912U, 0xbd0d3928bdace40bU, 0x3dbcd52cbe309c6aU, 0x3eaf6f623da13f01U,
  0x3e1df6943e5d64a0U, 0x3d8016903d8d3e6fU, 0xbde465533e047223U, 0xbdb78b713c46fc95U,
  0x3e262a753ca0f633U, 0xbdd350b63d4767c3U, 0xbd05743e3c7b8cffU, 0xbe2f3d373debd915U,
  0x3ce1d9edbd74d1f6U, 0xbc3e204bbdb9d3ceU, 0x3e042a06be2c1ec9U, 0x3d61b1963df19c4aU,
  0x3ce207b23d6695ceU, 0x3e2a8ca9bd896e58U, 0x3e636da4bdcd7f92U, 0x3c6179013ddfc2c5U,
  0x3d14ac1d3da07e38U, 0xbe16a47f3e87fb06U, 0xbe074c67bc8924e4U, 0xbe4264eebdf6939bU,
  0x3d5cdb0b3e96c3f5U, 0xbe3bd0d43be3e90bU, 0x3d8bf18f3dbd54c6U, 0xbc836affbd794c7aU,
  0xbdef17743d7232c2U, 0xbe3e94fd3c1c7d5eU, 0x3e1fa6fc3c9d1f7bU, 0x3ea105b0bd29d466U,
  0xbdd0bf9cbd8613d0U, 0xbceabc333e8a6280U, 0xbcc9c1ee3def9ca7U, 0x3de060843db12585U,
  0xbc6c0cd2be2a3e6bU, 0x3d07bebabe19901fU, 0x3a7db1e3bdda0c32U, 0x3e2e77c9be07cbbdU,
  0xbe64b3a83e961e2eU, 0x3b5e19fc3dd426e6U, 0x3cddf5fabda53355U, 0x3dce33b2be25596aU,
  0x3bd5a434bdc84a49U, 0x3cdcd4ccbe219954U, 0xbd07dd033cf66dd9U, 0xbe659aff3dfc47b8U,
  0x3e00d3dcbdaf8d59U, 0xbdaf84e9be908df7U, 0xbdc9fb55bc8ba458U, 0xbd1bd08abd0c601cU,
  0x3f0645583de5be14U, 0xbc85613b3dbcc584U, 0xbd03427fbe882d20U, 0xbd2af9153e8de626U,
  0x3c9c3ea2be366e77U, 0x3c2a4b56be0840fdU, 0x3c232af7bd847458U, 0xbcb0192ebdd8663dU,
  0xbc5590713c0c9e96U, 0xbc8cd2cfbe35ae9cU, 0x3ddd9c0f3d8e46c8U, 0xbafad89a3bbcc245U,
  0x3da7c6043e4d92a3U, 0x3e15dce6bdc2ba89U, 0xbe2e94d33e618b50U, 0x3e1c711b3e04affaU,
  0xb91c4406bd9e74e1U, 0x3c2c55453e00ba90U, 0x3e040dd63d930ee9U, 0xbcd43383bca89b0fU,
  0xbe9d5fce3d6c8afeU, 0xbdb46f3dbe4129bbU, 0xbd958e11bdbe315fU, 0xbcf32cce3e453cfeU,
  0xbd0eb81fbe8d7799U, 0x3e73e8823e4d219aU, 0x3d8bed62bd693bc9U, 0x3d3cc117be13727eU,
  0x3e64deb23d2a5b7eU, 0x3c4edcaebe1c3619U, 0x3eaff306bea4dcd6U, 0x3c1a334abe1d8173U,
  0xbdc2ed83be5da287U, 0xbdf97f0cbe19c2dbU, 0x3cb909453e841417U, 0xbd96704f3e4b6702U,
  0xbea658423e8d8005U, 0xbe7ed1453e3c00abU, 0x3d102fb1bd4c8afeU, 0xbd9c942e3e57a1deU,
  0xbe0497c63e0e8798U, 0x3e0950f73e1a2558U, 0xbe3bdc033df0edc1U, 0x3e7acdfdbd8f7ae3U,
  0xbde8e16a3c2822e7U, 0xbd5543dabe0ba2f7U, 0x3e1c9427be77906cU, 0xbe615c043cb566a1U,
  0x3de62c6fbdcb5ca4U, 0xbd1873dabe8fd357U, 0x3dbc54cc3e291e75U, 0x3d6bb18cbd807a3fU,
  0x3e238876be1ddf67U, 0x3cc46e203cb82255U, 0xbd0088f1bd5cdb46U, 0xbde5b95a3e481a6cU,
  0x3e3b2d623e3c0e26U, 0x3d5295413b50e141U, 0xbd99fc983e6ce1dfU, 0x3e0a60b83da62e98U,
  0xbdfe7861be80318aU, 0xbc99a1b3bb176b06U, 0xbe63b2773e04e59eU, 0x3d75dec5bd99a202U,
  0x3d2696b73de76a69U, 0x3df308e63c0521a8U, 0xbeb247f73e0d3c0eU, 0xbe400c9cbeb0155bU,
  0x3cbe77393cfd9bc6U, 0x3b731195be506e81U, 0xbdac9052be6ee177U, 0x3db18b193bb53b0fU,
  0xbe8f82d0bd4c938eU, 0x3e5869d4be544695U, 0x3bfae063bdee1050U, 0xbe2f0b083dd3f2b5U,
  0xbdbdaf64be40b3eeU, 0xbdd38a4e3c947075U, 0x3d0c1e8e3e5b099bU, 0x3ce2c8a23d5f7965U,
  0x3d3701ffbc19cb13U, 0x3e0e10703e2523efU, 0x3e53872cbddbd85cU, 0x3d915caebe34c94dU,
  0x3b143aadbcc9a73aU, 0x3defb9913d192f04U, 0x3d65dd11bdb53766U, 0xbe663f23be0d3169U,
  0x3dde5af93d9c9b19U, 0xbdc2ab513dc08ee4U, 0xbd62af973e064bd7U, 0x3cee9a9b3d9acd47U,
  0xbde69ba03e041ce5U, 0x3debddab3c5959e5U, 0x3d94b37bbe04c5ecU, 0xbd9da2e5bd34aa95U,
  0xbd7469c03da8a08bU, 0xbdb464b33e20b83eU, 0xbd8ec05c3e2ef1fcU, 0x3d05de2fbe546b5cU,
  0x3dbe53a5beda323dU, 0x3d635ec8be8f348fU, 0xbcb9eddfbcf4e9fdU, 0x3d7e3c7ebe16fec5U,
  0xbd7870f33e2647c3U, 0x3b4c65863dd09d92U, 0xbd13bd73bda505f7U, 0xbd234515bc64c91cU,
  0xbd50d9533dc966d0U, 0xbe04806fbd7647ecU, 0xbd64e754be2393c1U, 0x3daf61443d8e0a6cU,
  0xbe7888f8be8cd799U, 0xbe2917b83d8cab19U, 0xbde007133da2742bU, 0x3d57be87bdf416f3U,
  0x3de06a9fbe859517U, 0x3d9222bdbe0ea14cU, 0x3d2478b1be8cf204U, 0xbe2dc7bb3cf88f74U,
  0x3db682313cbacb6eU, 0x3e15ff9abd8c6fbdU, 0xbd192f9cbd56b1baU, 0xbaf974803dcb545fU,
  0x3d515efbbde87cc8U, 0x3d69929cbe1b49ebU, 0xbdff648bbd632736U, 0xbc7a689ebe3dd778U,
  0x3e2d72c03d335b4fU, 0xbe176e9abde6e6b6U, 0xbd112e4c3e09170cU, 0x3d884ce2bd2d14e3U,
  0xbc77efcfbe0b8e5cU, 0x3d37d0ac3d4e894cU, 0x3d225bfdbd193d77U, 0x3df176913d53b2f3U,
  0xbca543803dca774cU, 0xbe3ff6af3ea48f41U, 0xbe019c5abe91e2c8U, 0x3e57129cbd942e00U,
  0x3d837525be04dbecU, 0xbd9fd0223d36041fU, 0xbda6b49a3dfb70f2U, 0xbe2ca8883d027058U,
  0x3d9eede43da96623U, 0x3d8ac9853e17030dU, 0x3a8e9a0f3d315d3aU, 0xbd8c9e9c3e39f927U,
  0xbdfa1b643e3eaeceU, 0xbdf6167fbdfcd66eU, 0x3e303727bc74b947U, 0x3dcff634bdde26cfU,
  0x3b07f1eb3de72fdbU, 0xbe08c654be4b1651U, 0xbdc7bb323e30056eU, 0x3c8c5065bbedff25U,
  0x3d9579c83dbec917U, 0xbe09a9a7bca7977aU, 0x3ddb06713e489266U, 0xbdc372bbbe10cab6U,
  0x3d3c0a123e0ebf8fU, 0x3e25dc6abe4d8ca3U, 0x3d12cee73d1c8a4cU, 0x3e183a863d25b48eU,
  0xbdf559f33dba2e50U, 0x3db381263d6e3b74U, 0xbe8403ac3c9162f9U, 0xbcea4110be042561U,
  0x3c612eb73d26ee1dU, 0xbe0b80bbbdc96024U, 0xbe1351233d11650bU, 0xbd02f9203d9b4563U,
  0x3dd79ca0be78a38aU, 0xbdde0c3abe708f1fU, 0xbb8709ee3dbf0a56U, 0x3d904361be4365f4U,
  0x3d9e91863e1dfcc6U, 0xbc90990f3d3f84f2U, 0x3da453f83e081f69U, 0x3d193a97bc3de08cU,
  0xbd2b9094bea64974U, 0xbe09b33d3d025b1fU, 0x3d97a3ca3e34ea2eU, 0xbde68b23be1310adU,
  0x3dbcbbc83e42f7f7U, 0xbdc1ee663e9aee84U, 0xbd986a343d457e8aU, 0x3dfb10cebd8c6a55U,
  0x3de0199f3cd2d4b6U, 0xbdab9a473e871b79U, 0x3e068d9cbd290ca8U, 0x3d9ed6f4bcdc966eU,
  0xbe20823c3e8a3488U, 0xbe0ba6f33d53f7eaU, 0xbe0ff7b93ae223b0U, 0xbc763bb3bd157e1eU,
  0x3d463cc93e280ccdU, 0x3c21e2233ddc4931U, 0xbec9a0d43d7872dfU, 0xbcf0c9523d8e359aU,
  0xbea9f8d1bd97ef14U, 0xbe43c2d9bc411f8eU, 0xbd85fd8cbb8ba27cU, 0xbdd760eabd127e73U,
  0x3bdb4e44bca232d9U, 0x3e6214cdbe196eb2U, 0xbd862bc5be292ef5U, 0x3e0c4eb9be92e923U,
  0xbda6fe603da99cc4U, 0xbd5a6b3bbed65cc6U, 0xbd285c1b3c145b30U, 0x3be64bb53c84d091U,
  0xbe0547ab3e42151eU, 0xbc316ccf3d5fa953U, 0xbea6f6ce3e00430fU, 0xbd8b3ac63c9a3481U,
  0x3e0bfe213d037603U, 0xbcf8803dbdc9d865U, 0x3e32e217be178b9bU, 0x3c30c09bbe057cdfU,
  0x3d712f163d80eed9U, 0x3e3ae50c3e541489U, 0x3d61da1dbc114d93U, 0x3cb5a349bd91571cU,
  0x3e76cab3be5f76e8U, 0x3e2bd2bd3e1ed8c3U, 0xbdf64155bdfd423dU, 0x3c233488bcffa96bU,
  0x3db07a2ebd153e34U, 0xbe7244bf3c88f20cU, 0xbdadf22dbde560cfU, 0xbe0cfdf2be888345U,
  0x3e639345bdddd9b2U, 0x3e0041e8bc8bc927U, 0x3da2c13a3dada149U, 0x3df641f03dbec48cU,
  0xbb8ebc66bd64c0c5U, 0xbc3b6b0a3e2d7109U, 0xbccbcec9bda5b60dU, 0xbd34c6f2bdc892d6U,
  0x3d9a1d003d0dd8ddU, 0xbdec1c8f3d34e2c8U, 0xbe4829c23deac652U, 0x3de0496bbd244367U,
  0x3df739173da31120U, 0xbd520d06be39d0ebU, 0xbe1227253e1a2332U, 0xbca7ab933c26daf2U,
  0xbc3cb8d53d8a601eU, 0xbe14e70cbd652bbfU, 0xbda557623df352f8U, 0xbd72bb6abe3bf51cU,
  0xbc79af97be532f9bU, 0x3c696a033d34eb57U, 0xbdf5a2e23d8bf6a0U, 0xbdd4a739be02eb3dU,
  0x3d96d94abe162720U, 0x3c9a32493e2d5351U, 0xbe17ec783dfdd600U, 0xbd863e5b3cfe274cU,
  0xbe0cd0dabc88b71cU, 0xbe65c36fbb037f51U, 0xbe1801e1bd5483c6U, 0xbac915cbbdf066e4U,
  0x3cffdbc53df0a0d9U, 0x3bcc53d33dce9625U, 0xbe855fd9bd4d10baU, 0xbc710d18bdd03f44U,
  0x3d8346313c1c9a56U, 0x3dc96b51be409a1bU, 0xbdb61e5b3dd65ce2U, 0xbe108c1cbdcdcf92U,
  0xbd32d2113d07d678U, 0xbc706856be0d6227U, 0xbe1bf6fa3c8a3d4fU, 0x3e089f94bdbdfe5fU,
  0x3d09254a3a3eed7fU, 0xbe5e9b69bb9daf6aU, 0xbdb5f46ebcf886deU, 0xbd3e1b48be426ee8U,
  0x3db741323dff0e59U, 0xbe23d6d33e275b56U, 0xbe251ae03b43db0eU, 0x3d3aa6713e085f7bU,
  0xbde615943de9082dU, 0x3d9c763e3d42d408U, 0xbe8f40d6bdff2ea7U, 0xbd4b77c9bd72a1bfU,
  0xbdb500813d16ea86U, 0x3d9ca6693dea9314U, 0xbdd0603b3e806c44U, 0xbe165cf33e2f6f81U,
  0x3e825ad5be0c7f4bU, 0x3e4a9225bdf44497U, 0x3e3f82aebe29ef6dU, 0x3e3572b03d8c25feU,
  0xbca604213d531167U, 0x3e15b9ba3d7af0a9U, 0xbe80357fbdb5ccf7U, 0xbdac24ef3e28555dU,
  0x3cb3dff8bd2d4e36U, 0x3e7acd353be79d08U, 0x3d8095573e3df01bU, 0x3da763083e02a7ebU,
  0x3e5786923dec21f8U, 0xbd9f05f9bcc0b3ffU, 0xbd1f2b5cbca29249U, 0x3d2957753e209165U,
  0x3e1806673d0f5013U, 0xbd34ad593e621ea6U, 0x3bb0dcba3e17369fU, 0xbe0436a3bd8aae80U,
  0xbd8c4b19be07e6a1U, 0x3b0ddd5d3dfe0742U, 0x3ef2571ebda787c6U, 0xbe048c51be16dfe4U,
  0xbd15950b3e1ed7c6U, 0x3d9360e2bda4eda3U, 0xbd7f840abd17a29fU, 0x3cd0b356bdc5cb53U,
  0xbe381c533ea3c628U, 0x3e3fee193db866e3U, 0xbdd2c4c23daa41a7U, 0xbe7a27dd3e0abbc7U,
  0x3d5bcdcf3e374e26U, 0xbdf7381abdbc4ea4U, 0x3dc7c27dbe486570U, 0xbe45ef64bb73ca82U,
  0xbdbebb4abe30c4cbU, 0x3df67b563dd73ac8U, 0xbe8f04bb3e32864cU, 0x3e873de73dbbd49aU,
  0x3dbb6349bd9a0ab7U, 0x3d20ccf1bb2b0a75U, 0xbd4aba6e3dc50e1aU, 0x3e57a82e3a8cb47eU,
  0xbe1b4b0ebdd9ab00U, 0x3e0c31fbbbb0daddU, 0xbea28e9dbe625176U, 0x3d4d8595bdbbae89U,
  0x3e23b36bbe0e8610U, 0x3c25b6f63dfa8f3aU, 0xbe58f72a3db74089U, 0x3e35bda6be1834b9U,
  0x3dde1c9c3cf0703eU, 0xbe1ea3d3bd83036cU, 0xbe421ffbbe0f2bb8U, 0x3c388c4ebdd0ba45U,
  0xbe2667bbbdce17d6U, 0xbe75cc713e2b809eU, 0xbe7018a13dc41c63U, 0x3d328a64bcc394b9U,
  0xbd0739d8be370335U, 0xbb4b98553e62bf41U, 0xbd4e54783e5c5cdcU, 0x3e108877bcb52be2U,
  0x3e3279e3be1b9c70U, 0xbd7d0a5e3d2f7349U, 0x3e237e3abdca9f6aU, 0x3e3848393dd145abU,
  0xbe182f093e5c1209U, 0x3e66070dbded1c10U, 0x3dd1ebb33ddd70f3U, 0xbe24e32abe50d932U,
  0xbdccb8953e7c96f5U, 0xbdc22d703e3bbacaU, 0xbe1da3f03c07e597U, 0x3db6756b3e275704U,
  0xbe13343ebc982c2bU, 0xbe1e57c9be316c7eU, 0xbe0613e6bde76201U, 0x3d5461193e0be225U,
  0x3e7f1e10be87fcc2U, 0xbe0779fb3daf1232U, 0xbc01f1a53dc93824U, 0x3d5076df3dad6d95U,
  0xbc9c4b663e2f64ddU, 0x3d5f445b3e38109dU, 0xbe3727fa3e4340c3U, 0xbdf7837fbd15a2e2U,
  0x3e3070adbda47382U, 0x3c9971fabd6ac5cfU, 0xbc261f97bd90e733U, 0x3e2e7967be98af59U,
  0xbd69c3e63e8810e4U, 0x3d9f6f0cbd79af60U, 0x3c490af6be6a917fU, 0x3e523739bd5096ecU,
  0x3e494fc53e3854dfU, 0xbe4c85fbbdd367d2U, 0x3dd1fceb3e472314U, 0xbe272c783e4625e3U,
  0x3cf9255cbe8b8500U, 0xbd893d5fbe1eff18U, 0xbd28cc9bbe383e28U, 0xbe4c3c423e57a3b3U,
  0xbeb3794dbe9fb540U, 0xbdebf9d13d640e23U, 0x3ec3348bbe9f2bf3U, 0xbda556873dad9cb5U,
  0x3d09fcf43d99d7aaU, 0xbeddc7963ce36752U, 0xbd3bd9153d85aaedU, 0x3d7b5e11bd8f790dU,
  0xbaffe118be915039U, 0x3c308761bd964d6cU, 0x3e09f8ecbe6b4c68U, 0xbc9e7ab73db1b524U,
  0x3db543ddbee6462fU, 0xbcb01d693e228363U, 0x3ddcb404bde48ffbU, 0x3e06b8a9bc9c4736U,
  0x3e0e1beebe1d3760U, 0x3e0211f73dddc64eU, 0x3f0d4f433ddc0a40U, 0xbd9f1bc03e389d02U,
  0x3e1a1663bdf40bebU, 0xbea024d8be1adc53U, 0xbe6d8d143de3bc33U, 0x3e721fb03e87ddb6U,
  0xbd9c91f43ee23b8eU, 0xbe05d0c8bdcc7a4aU, 0xbebcc564bea83f6bU, 0xbe7c9800be441da9U,
  0x3e308c6b3ddcdc7bU, 0x3e67b4d33d620a89U, 0xbe8158803db45961U, 0xbd8cef6dbdb46889U,
  0xbeaa9b523e6dee8dU, 0x3e894ff0be4556cfU, 0x3e86ec703d2f437dU, 0xbdb1c6b63e2c4d41U,
  0x3e0c0dc73c2ae91aU, 0xbd89fa5dbd87f8c5U, 0xbd7590673e13250dU, 0x3a8123d2bdc12e62U,
  0x3daf9f1dbe826ea7U, 0xbd96f477be054d06U, 0x3ddb04013d290409U, 0xbc84adfabd92e7c1U,
  0xbd27834abddf6f05U, 0x3e07e30b3dcc06e5U, 0x3e6871383d7548ecU, 0x3e33d0c23c522668U,
  0x3d1a684d3e931679U, 0x3dbdb0e7bdf32ec0U, 0x3b364d7cbd8a2a2aU, 0x3e0040d13e0b0c98U,
  0x3e1a760f3d494c24U, 0x3dfeff09bd736d36U, 0x3d0e8e06bdc455d6U, 0xbb816622be06f050U,
  0xbd92a8ddbdd310fbU, 0xbe12b5b33e6dccb0U, 0xbd060ddfbe3a9675U, 0x3dbe83633d1c3cc4U,
  0x3e809b96be252c4fU, 0x3cd65e7fbdafcbe9U, 0x3d8371c7bd54cf1bU, 0xbe25f393be08c74bU,
  0x3e11043f3dc0d7b8U, 0x3cd2f896be8e4672U, 0x3d523b3ebce54cbfU, 0xbe49962b3e1308f9U,
  0xbd91d4193e0d0476U, 0xbcac542a3e513114U, 0x3ed1153a3da55815U, 0x3e0bc04d3d85b832U,
  0xbc0902153dcda710U, 0xbe911f6dbcf6b821U, 0xbdca5b693cf46069U, 0x3e3765d1bea3a159U,
  0x3dab46c63d71cb5bU, 0xbc88ea1f3d8be4ffU, 0xbe1142f6be55f95dU, 0x3e030c0c3e1a9e5aU,
  0x3db8800d3ddf4218U, 0xbcd2b6bbbd8572d5U, 0xbd307120bdf5abf0U, 0x3c28cc5bbda596e3U,
  0xbde415693e293914U, 0xbdba0615bdb67ecdU, 0xbd89a29cbe50a22fU, 0x3e1ac58dbe330c0cU,
  0xbe170d713d53467aU, 0xbc59d0703d2cc585U, 0x3e41fb443e546f30U, 0x3a82b68ebcad56d5U,
  0xbde19baa3de464fdU, 0xbe4d61c1bd69a55cU, 0xbeaf58adbe038d06U, 0x3b82a5933e18da77U,
  0x3d7699e9be42eeb0U, 0x3e61c5173d9bbab0U, 0x3d161f8b3d4fb76bU, 0x3e36c5f2bcb55a93U,
  0x3e780e00bd35b146U, 0x3de1f6833d140ef2U, 0x3e5475003d142ac0U, 0xbdbddabcbd9a280fU,
  0x3cf9e4143d01edeeU, 0xbd8a6a91bdf994e9U, 0xbe2cbf27beb4abd2U, 0xbe7cadfd3cf4fd1aU,
  0xbe1ed536bd010230U, 0xbe7d18f1bdf6dfe6U, 0x3e54d9f43df818ffU, 0xbdc5e2fcbdb5a5ecU,
  0xbd909c2e3df495d3U, 0x3dbccc723bf4f7b0U, 0xbd45def03cbcd252U, 0x3d957fc33c1143ecU,
  0x3dbe1967be76b36fU, 0x3e5fdf4cbd59830eU, 0x3e5714f63e937950U, 0xbd45cc87be82d621U,
  0xbe3935f33e6b48d3U, 0xbe115d18be45753eU, 0xbe0c4b843d6333a1U, 0xbba7d963bd202604U,
  0xbe958a083e104867U, 0x3db08d893dadf711U, 0x3dcd6f043ea5eed3U, 0xbdce0747bd8da897U,
  0xbe4712b0beb71c21U, 0x3e3de3f03d46510eU, 0xbdc36984bd9caef0U, 0xbdad91d9be420725U,
  0x3e59038cbcb7989fU, 0x3e3ada7bbc3e2f5cU, 0xbd74f3853e693ae3U, 0xbe271ed13d9620e1U,
  0x3d13d665be189a3aU, 0xbcf9f5cc3e017ae3U, 0xbd9361323e0c08d4U, 0xbde5cb893e7c66c0U,
  0x3e9c0ae1bdb823e9U, 0x3d907184bdfeec78U, 0x3e1fa343bdfc1385U, 0x3dd69079bef14ab9U,
  0xbda2c5013d9c3cf3U, 0x3e3bd5d7be727773U, 0x3df5cb8bbe46edcfU, 0xbe036511bd48726fU,
  0xbe111e63bde40e3cU, 0x3dad979e3d968039U, 0xbe1085cb3daa9c9cU, 0x3e0488c23db86fa6U,
  0xbbf75265bdcf22a4U, 0xbe0f5818bbdb8e14U, 0x3d92adc5bd8c30c5U, 0x3c07beb73e36e221U,
  0xbea833ec3df46bdfU, 0x3e5df4a83e183c7bU, 0xbe4c0adebe0e9609U, 0xbd22447abe94a9eaU,
  0x3e1bc66bbe2b14e5U, 0xbc20c88dbb798161U, 0x3d7a4fa53d93d055U, 0x3eaac6423cf24b2aU,
  0x3d7cb3ed3e29f5edU, 0x3d955ad2bdc616e3U, 0x3e143401be4e322eU, 0xbe58ab1c3d4ecedcU,
  0xbe7e4c963cc18655U, 0xbdea5d053c8607a3U, 0xbe2065e23dded996U, 0x3d2db9d83dbd7778U,
  0xbc3bc526bdf5db69U, 0xbdb3771d3de15f11U, 0x3dbc2267bdda382bU, 0xbda46f13bda298f3U,
  0x3dd3671ebd7ea4ecU, 0x3c4a5d4ebe9de69fU, 0xbe008848bdb0ce19U, 0x3b12c131bdd218beU,
  0xbd6273593e2622e6U, 0x3ded38efbe41dd4fU, 0x3c9b93afbe1ac747U, 0xbd6f194ebd727af9U,
  0xbdc49d24be53108fU, 0x3e1dc583be2abf6aU, 0xbe956d5d3d86ec9dU, 0xbd689625bd0cdf76U,
  0xbd31ebddbe410054U, 0x3e3c21243c312aabU, 0xbe49cb46be83fac6U, 0xbdd41735bc8b42e4U,
  0xbe00f534be8a46faU, 0xbe0c70ae3d411d21U, 0x3dc53d6fbd0ae439U, 0x3dd2cc01bdde9a9cU,
  0xbc37c172beedc363U, 0x3e181e0abed13a39U, 0x3d0b53473c605addU, 0xbdf24346be2d8c1cU,
  0x3cc6e2b1bdcfcf54U, 0x3d400b7dbe38f68dU, 0x3e32847d3cd991e8U, 0x3e1e6660be34b0e1U,
  0x3e2d2598be9f0196U, 0xbe5b52bcbdf8cf9dU, 0x3d9c6a04bc6f2fe0U, 0x3e0ee0453d504507U,
  0x3d2db24bbdc2b20aU, 0xbeb43b353dad89caU, 0xbc8180eabe1ba6d8U, 0xbd03f7323eadc14dU,
  0xbc86c0a5beb4a17cU, 0xbe1f58a93e1a7962U, 0xbc8f0394be45d6e5U, 0x3dd1b8c3bd946745U,
  0xbd9bae3cbe7c8509U, 0x3db0075f3e2118c8U, 0x3e0166efbd02c6cbU, 0x3c7cb6fe3d6022daU,
  0xbcc22ef6bd8a175cU, 0xbdc44fb4be76b008U, 0x3d185c633d362391U, 0xbea01b46be11c022U,
  0xbd6c8f71be2cad2dU, 0x3e5eda1fbd02bf33U, 0xbdbf97653dc1bdf6U, 0xbe50a863bd8e6bb4U,
  0x3d1dc845bddd801aU, 0x3c9e71643caa9270U, 0xbe5ed870bbe9a2ecU, 0x3e25080e3dcf5ba0U,
  0x3ca9ad143daead51U, 0x3e4f14693d76e24aU, 0x3c0ed3553d9b05a1U, 0xbe20843abd921030U,
  0xbcd6e7d13d5573f0U, 0xbdfe11ec3d9aa0a6U, 0x3d81d7c8be81f3faU, 0x3d8e71ffbe3800feU,
  0x3cd0b8debe426205U, 0xbdbaf0103d6abe54U, 0xbd129854be378c0fU, 0xbca63bb83d9ce3a1U,
  0xbc875b7c3cdacec5U, 0x3d84fdb2bccd7ca0U, 0x3d30850abdc7acf0U, 0x3e0192fa3d3d1b40U,
  0xbd9c7bae3d6c5d6fU, 0x3df45697bd869cadU, 0x3db6ff7b3df1bb4bU, 0xbe0a75ac3d858314U,
  0x3d9f7fac3e116a5aU, 0x3db76547bc3f6a60U, 0xbe133a213d5fcf84U, 0xbde70f77be246141U,
  0xbd884fac3dfe44c5U, 0xbd880b353dad5dfaU, 0x3dac52e8bdac40a9U, 0x3bdd507abe3ef541U,
  0xbe290254bd20d956U, 0xbc64348dbe26215cU, 0xbcc10270be06135eU, 0x3cc23230be0d66eeU,
  0xbcddbbbcbe41fea3U, 0x3dbf2eb83d38a02fU, 0xbd620f85be0a2e64U, 0xbdd77b13be505cfbU,
  0xbdfbbbebbd44985dU, 0xbd0b6269bc242899U, 0xbd5b03bd3d5d9059U, 0xbd6eebcb3e04a248U,
  0xbdab748cbe517286U, 0xbe36c24d3d3d6a72U, 0xbcb34392bd938e3dU, 0xbe0a2441bdd5bb69U,
  0x3d2e2c543e01bb9bU, 0x3cd2231dbdd7a6c9U, 0x3d17c207be505b56U, 0x3d0507d0bddfcf1cU,
  0xbde325d4bb1b630eU, 0x3d71fac1be4fdea0U, 0xbca453b5bdf32644U, 0xbdbace0dbe142c74U,
  0x3d0d4701bb522069U, 0x3d9d94b43cbdca1dU, 0xbdfc6742bdff5e49U, 0xbd9388cfbe502ef6U,
  0x3dddc26f3db7e4b6U, 0xbdfbefbebc9d60b9U, 0x3e2e17b6bec25508U, 0xbd4fa4e93e6c9ad6U,
  0x3b2f6f1ebe297309U, 0x3cee5950bf08d5cbU, 0x3e4cfe733e10a46dU, 0x3d94de5bbdab8361U,
  0x3df3e57cbe036085U, 0xbe49eee2be21d15cU, 0x3da43920ba52e1c5U, 0x3e77ca723d83553fU,
  0xbda59f82bc91c748U, 0x3e974cb2be25e616U, 0x3cadb8f13f0cccb1U, 0x3cd94b623d8ddb00U,
  0xbe89099bbe5d8535U, 0x3f0922563e5d8cd4U, 0xbdd67bcd3b813f1bU, 0x3e12fa59bda69b82U,
  0x3e383e6a3d778104U, 0x3db3a03cbed3cf6eU, 0xbe33c6343e960410U, 0xbe70c75c3d81218eU,
  0xbd55e78ebcf9d4feU, 0xbe5df1fb3d87d824U, 0x3e0719e83e4ab2b8U, 0xbd9d69ed3e80fba4U,
  0xbc6e9f823cc809c8U, 0xbc8ce3cd3e03cd88U, 0xbe2756dbbdaf24b6U, 0x3e268775be158ef8U,
  0x3c68ddb1be8ed5bfU, 0x3dd0a5423d67b204U, 0x3d17c5403d99e5e1U, 0x3e31ba853dcb061aU,
  0x3e3cd9cb3d07f3f5U, 0xbe493713bdb4fffdU, 0xbd464bea3cfc58cfU, 0x3c8fc7013d0c5914U,
  0xbe74813e3dccba5aU, 0xbe0e53c2bde2fa7cU, 0x3ca6c8513e5f44a6U, 0x3dc57da03d2f147bU,
  0xbeae98aabcc1d85fU, 0xba7f302dbe1a283dU, 0x3e463bad3d44e08aU, 0xbe0d4975bd784891U,
  0xbdc66cb33d741c81U, 0xbe1de0ae3e36561cU, 0x3e0edbecbe2df49dU, 0x3d622abc3da8607eU,
  0x3e4a2342bd85d14dU, 0xbdf97664bddaee0fU, 0x3e7eb8cabde1e549U, 0x3e95a9c8bc0cc0cdU,
  0x3cd03e20bdb6548aU, 0x3d9965443d5d311bU, 0xbdad9ef0be29b294U, 0x3db15eccbe00c388U,
  0xbe54feea3d8d4688U, 0x3cfa1970bd8d6c65U, 0xbdeb4bcfbdb5f61dU, 0xbe7795603d62df06U,
  0xbee62b133dbe6550U, 0x3dafb09f3d880d67U, 0x3c8ffaf43d96dc30U, 0x3e93ce05bc9a6154U,
  0x3d2eac6d3e8a8476U, 0xbdb296cb3d92bcfdU, 0xbc0a2e2abe8c975eU, 0xbd85e7013e4d9e21U,
  0xbe3c54123c4075e7U, 0xbcd78ff1bd3e9f24U, 0x3d9090cabf0b03b0U, 0xbe6405e83e77df2aU,
  0x3e15c52ebd62a8ddU, 0xbd4732623e6a8ad8U, 0x3e0279c6bdd89f2fU, 0xbd69bc46bc79b85dU,
  0xbdc1830c3e672372U, 0xbe9a1fa4bdb66298U, 0x3e3eed2e3e1e610aU, 0xbdefa7f43da41606U,
  0xbe0976edbe4cf431U, 0x3e7828ad3d8df167U, 0x3dd966cebe68416bU, 0xbd1b10343e1cdca0U,
  0xbe9171d33d1d4151U, 0xbd8ec18e3e095a81U, 0x3e1f80b53e3b1622U, 0xbdaa03e33c68a59cU,
  0xbc8f3fea3dbcc3d1U, 0x3e5176edbde70a5aU, 0x3e1e8802bcbe5268U, 0x3d37c8b9bd9fb2e9U,
  0x3e88c49e3e820785U, 0x3d9968c63dab2b2dU, 0xbe2bb932bd504faaU, 0xbe053b0f3e06c2f3U,
  0x3e1434f4bbae2756U, 0xbde2aea13d945b98U, 0xbe9b10b43da3a84eU, 0xbd88d5d23e3344efU,
  0xbe819ac9be94aa1fU, 0x3e28dc9dbe2895e6U, 0xbd9f2a17bdd2391dU, 0x3d2d02a83de89102U,
  0xbea45f4fbe8f58f1U, 0xbdef791d3e50b5baU, 0x3c053b1b3d3ffcbfU, 0x3e3b78a9bf0300a7U,
  0x3dbcd343bf1e8a67U, 0xbea2335c3dfc7a75U, 0x3e1e4aa23d700b6cU, 0x3d9e1d68bda590c5U,
  0xbe111d963de4ceb9U, 0xbf0a6c4c3d6f131fU, 0xbd5b655e3d9f1c7fU, 0x3cac7e793e24bdbaU,
  0xbe46c56fbe9c8437U, 0xbebebfebbc4dffbfU, 0xbc41efc2bd33e26eU, 0x3cbe01793dd50513U,
  0x3e3c3676bdb6f7ebU, 0xbe10f5e13d9a3adbU, 0xbe84008cbec7e400U, 0xbd54c8753db7303cU,
  0xbe4a2886bde25b52U, 0x3e6503093d738ef4U, 0x3e0a63bf3e067f0dU, 0xbe88416ebe665c1aU,
  0xbe040248bd8613e3U, 0xbda88f94be7922beU, 0x3e7f232cbdc24b03U, 0xbcb4e593bd2578f2U,
  0x3e576cccbd73aa88U, 0xbdcd9690be111d13U, 0xbe898b33be7a8505U, 0x3e342e3b3e216e29U,
  0xbe9dc068be07faedU, 0x3dfe40f63cdadf10U, 0xbe3fbdee3e4db264U, 0x3e3bb8843da80523U,
  0x3e4f79923dc7db04U, 0xbc99a797bd841dfdU, 0xbe2258d63e87fb7dU, 0xbe77773e3d441342U,
  0xbe0da2bebe284c66U, 0xbdae7b703dc70a2aU, 0x3eb353c73e8195b3U, 0x3de042303d2617dbU,
  0xbdaaff5abd62d2aeU, 0x3e02ff2dbda805bcU, 0xbe9d355e3df1a176U, 0xbe2ab8e9bbc895afU,
  0xbd975c153e21a5cbU, 0xbdd316eb3dd3f95bU, 0x3e3176023e1cb2c5U, 0xbc0c3ed7be3f20e7U,
  0xbe24e6883e072dd1U, 0xbcd07d423d12c98cU, 0xbe6f17ba3db9fa0dU, 0xbdc5d5903dacffd7U,
  0xbde176db3e81b245U, 0xbdde96dabe01ab71U, 0x3e8ff21e3b0e213fU, 0x3e19c7ca3dab7e48U,
  0x3de4c94f3e50b838U, 0x3cb95082bc1162ebU, 0xbe176869bdeb3f20U, 0xbe4605d8bd156764U,
  0xbdb7aa333c87f641U, 0x3e1437123d89e721U, 0xbe1cc0dfbe5c7addU, 0xbe101abcbdba462fU,
  0xbcc96f1e3e4ac68bU, 0x3de046e03d29a87bU, 0xbc0e97343dd0be20U, 0xbe0a7fba3d46dcfeU,
  0x3ef99b2abe2565feU, 0x3e045f1ebe2c8c62U, 0xbdb786963d6cdc1eU, 0x3d7a8be5bdee3817U,
  0xbdd53bfc3e2b4028U, 0x3ea84de33dbd1cf8U, 0x3e62ad66bddc5008U, 0xbde1326d3e4d0792U,
  0xbe0599b3bdf30a48U, 0xbd01eaeb3dd0a34dU, 0x3d75e9bdbce18a8bU, 0x3df62c193d3f60ceU,
  0x3ca71afa3db6fb2dU, 0x3e436f7e3dd71c61U, 0xbe1626573d306a48U, 0x3dea2409be6f005eU,
  0x3db8cf8cbe196a60U, 0xbdb45fc93e320c09U, 0x3d88b0983dc1545cU, 0x3a8f6c92be0a9eaeU,
  0xbdd27dc5bdeb9828U, 0x3d2dab2e3c9d8e05U, 0xbb1aeae1bc8cfd48U, 0xbd9c5b803d01d82eU,
  0x3d1c88c63c03ef93U, 0xbe59f994be559fb5U, 0xbdc9caf23e448c6bU, 0xbd9ab4743d8c8147U,
  0x3e8ef3a73d85d5dfU, 0xbea56e7fbe1ad8e5U, 0x3d46f41fbe8f7424U, 0xbe42b7ff3dc296fdU,
  0x3de4eb04be51cbe3U, 0x3d3e8cd93e7f1940U, 0xbe9d83d63dbfc922U, 0x3dc269a73dc0d16eU,
  0xbddc96b1be08f0dfU, 0xbde1ce37be5678e2U, 0x3e56b946bdbdcd59U, 0x3d3f081d3e4301b7U,
  0xbe840ae43e1369a0U, 0xbcf6322ebe115ee2U, 0x3de640d53ded4dd4U, 0xbdc183f03d1816b8U,
  0xbe10eae03e14d675U, 0xbd4433183e36e756U, 0xbda7ed403e1b717bU, 0x3d4684efbaccba8fU,
  0x3e340fc4bd0bb003U, 0xbe5076b1bd95db1aU, 0xbe92613abe0285a6U, 0xbdb6ab92bcb6632cU,
  0x3ead6fc83dbb7936U, 0xbef1daddbe44981bU, 0xbe17be1abd7c1d16U, 0xbe000bf4bd6daf5eU,
  0xbede9389be668d72U, 0xbc36d2debe3d306bU, 0x3e0e19b53eafeefeU, 0xbd8984b6be60f716U,
  0x3c01d0c63dcc3e5eU, 0x3dcb95883c9e1baeU, 0xbd92f8b1bd12a643U, 0x3df8c56fbcbfb95aU,
  0x3e841acc3c4fb087U, 0xbe813c673d8919f1U, 0xbef2b3c8be7cc9dfU, 0x3e24fd333deac23bU,
  0x3e842e78bd014510U, 0x3db771d5be1ca0c5U, 0xbdacc8403da8a584U, 0x3e7277133e47d42cU,
  0xbe1dacecbd9b264bU, 0x3c57c747bd6ee3c9U, 0xbddddba7be396209U, 0xbd29795cbc2c3517U,
  0xbcf888a53def680fU, 0x3d198c80be1bd1d6U, 0xbdc8b9adbd73dd30U, 0xbe2fd145bb737c0aU,
  0x3de5bc2bbe1b5ec4U, 0xb9a3efb2bc6ee3cbU, 0xbe1479a23ccb0ecdU, 0xb902210ebe96cab3U,
  0xbdf35ef13e33d645U, 0x3e371fd93e6e563aU, 0xbdf1c29c3d327641U, 0x3c8e50843e55ca9aU,
  0xbd36b95c3e02d413U, 0xbe114e76bd929cf7U, 0x3d13299a3da04a8aU, 0x3da16b673e1bce2cU,
  0x3d5dd4b43e358fd0U, 0xbca5a188bd59b813U, 0x3d7ab4053d7e684aU, 0xbe4e02f7bc539ddfU,
  0x3da889dcbdf12d5eU, 0xb8c38851bdcec6f8U, 0xbe7419be3dab2c03U, 0xbe461d973dc5a208U,
  0xbe94c0093e149703U, 0x3df29ec23d70beb4U, 0xbdb9b66cbe66be49U, 0x3d88e0f93db4169dU,
  0xbde4888c3dcf6ee9U, 0xbd70a8dfbc92c1f0U, 0xbe1a96233dceab6cU, 0x3d2b7bf63e26989eU,
  0x3e38f7e1bcfc255eU, 0x3e6e6be3bd050431U, 0x3b9b3ddc3c144c66U, 0x3d088849bd25d14dU,
  0x3de0ae78bd44de56U, 0x3d4312b5bce5ccebU, 0xbd95ff023e402fbbU, 0xbdac46eebd6163e6U,
  0x3d5f4084be88001dU, 0xbe675f88be065119U, 0x3e2f5d16bd8f9ecbU, 0xbe388eebbdf07cf4U,
  0x3e46bc65bd8ec9dcU, 0x3e31d9263af63120U, 0xbe7362f93da46d85U, 0x3e1ca7f53d89f779U,
  0x3cb8bb10bd97ebaeU, 0x3caef24dbda6c29dU, 0x3dc02447bd423443U, 0x3e3b56333c66793cU,
  0x3e0c4cb0be55fc0aU, 0xbd1bf251be1a45ddU, 0xbd816fd83e14a79fU, 0xbda441c63e5775c1U,
  0x3d8a6a173ca85d73U, 0xbd241f56bd1f72b3U, 0x3ead35f2bcb5571aU, 0xbe0a8100bdb80357U,
  0xbd33c4c03e91b23cU, 0x3e0187ea3e0cebb5U, 0xbdd94ae2be642c95U, 0x3ce91445be638302U,
  0xbe777e61bd06b277U, 0xbd97d4053d5ca26aU, 0xbd8ff8843d845126U, 0xbdadfdc1bd50f939U,
  0x3dfd099c3d138283U, 0x3df5501f3e47bc30U, 0xbe83e6a5bd953cd8U, 0x3def876abe017b0cU,
  0xbe72d1113d4e003fU, 0xbe375c53b701a608U, 0xbe1425863b20eca7U, 0xbe30f6f0be02efd4U,
  0xbe4f6b36bdb5de48U, 0x3debb9a33e31e820U, 0x3e56e01fbbf9fbd3U, 0xbe247da7be6e4b10U,
  0x3d2a29e73da56213U, 0x3e6f3b51be09dd15U, 0x3db9df6e3e97d9f6U, 0x3dfc497c3c2a767dU,
  0xbe0c4e05bdbce5c3U, 0xbe5b106fbc8859ddU, 0xbbe3b6013dfd3d63U, 0x3d94a10a3e573818U,
  0xbdb29c91be08ec7eU, 0x3ddc3f83bdc335c4U, 0x3e3433353d17b465U, 0x3c1c4c943ca5854aU,
  0x3d05a390bd4f06b2U, 0xbe0f4bdb3d92a7b2U, 0x3e206799be97cce4U, 0x3e2b58753db1067cU,
  0xbc1ef4abbe41581dU, 0x3e10afb3bd01f190U, 0xbe03e629bdd47953U, 0xbc31cd873e55d903U,
  0x3e85ffab3e3ac22cU, 0x3dc8d03bbe223c3dU, 0xbe88d5a83d6a9537U, 0x3e175007be8587d3U,
  0xbd8fa10ebe5fdb7eU, 0xbdfffa73bc70a543U, 0xbd2184c3bd481797U, 0xbe394b363dddb97dU,
  0xbe1b25ef3e02e73fU, 0xbea717463e01b14cU, 0xbe34950a3e4730b5U, 0x3e39d32dbdc36f64U,
  0x3d93650e3e701726U, 0x3d99f5c3bd7da4a6U, 0xbda5ed833e0d8f61U, 0xbdddf04f3e2716c2U,
  0xbddca748bda60294U, 0xbcd9f7eebd681608U, 0xbda7faafbe1d9d76U, 0xbe768a613e2eeec9U,
  0xbdcf4cb2bd7a0803U, 0xbd085752be0ab3feU, 0x3e14e6b4bd868133U, 0x3d9f705c3d4b2085U,
  0x3e227cd63d836d29U, 0x3e01b8e63db18a1bU, 0xbe06e899be66d8a6U, 0x3d1128db3d7ae069U,
  0xbd9bac48bdc6986cU, 0xbe0102ed3d543ecaU, 0x3dc2ced83d9f534fU, 0x3e2cc5aabd092a87U,
  0xbe1d7525be4fe1e8U, 0xbdf6587cbcff28c8U, 0x3e417dfdbe054f30U, 0x3d0ca0fcbe0d3d37U,
  0xbd684c553ccb8647U, 0x3caa406a3e549c45U, 0xbd42efeabd119595U, 0x3e197f533e083fbeU,
  0x3de495fcbdf6b5efU, 0x3d6b9c723e4552d3U, 0xbe5135a5bd739881U, 0xbd095b9e3e3ea9d2U,
  0xbc385d42bd61e95bU, 0x3daf49f9be5631c2U, 0xbe581658bdcc5519U, 0x3cb12863be845cc5U,
  0x3e77872b3e4e616eU, 0xbd03dbf03e646cdfU, 0xbe5fa67fbe0f3833U, 0xbdc2f3113bdef357U,
  0x3e6931d83d878e24U, 0x3cc482bfbd96b57dU, 0x3e162770be50ca3dU, 0x3d2cf0793dab125fU,
  0xbd055ecb3e11e9ceU, 0x3d83e4e6bccad21eU, 0xbe27c2cfbe3c7465U, 0x3e057c003d3c0655U,
  0xbd9a18afbe28f2e3U, 0xbed4aa78bcef7651U, 0x3e24ce4cbd0b2094U, 0x3d98b638be0b0b51U,
  0xbe0696f23d9f4dc3U, 0x3e3a34df3e07706aU, 0x3dd192dcbe0d7230U, 0xbcdc32e3be864598U,
  0xbd000bddbdaffdcfU, 0x3d74755abe4cdfaeU, 0xbd886f99bd124959U, 0x3d33c0b73c4abe27U,
  0x3e1a52483e5f55afU, 0x3dd36c2cbe8dd940U, 0x3e3334a2be716737U, 0xbcda61ba3e511f74U,
  0xbbc6827bbe0564f1U, 0x3c9a4088bdc8f894U, 0x3d4aa49cbc012029U, 0xbdda61223e9e16fcU,
  0x3e4593d6ba5de1dfU, 0xbde8117a3cee87caU, 0x3d9f8d3dbe7d9f11U, 0x3e08a19ebda472b9U,
  0x3e3443103db17285U, 0x3e01a9f0bd81a4caU, 0xbd395aa03d88bc68U, 0xbe9505323e1ec60fU,
  0x3b9b670fbe2d7e85U, 0xbe5e7d85bdbc7987U, 0xbcf1f74abda1bac7U, 0x3d960b183cd53c89U,
  0x3dc64797be1310ffU, 0x3c2d72653b3f898fU, 0xbcce6087bebb8d82U, 0xbe81a494bd5d2f37U,
  0x3e9462c1bca62b46U, 0xbd705a973e66f501U, 0xbe1b10f5be4d8d94U, 0x3e431960bdc7f4b8U,
  0x3e87f1293d294461U, 0x3c4fa352be1a2221U, 0xbe9771363da2d2b2U, 0x3dc0bfcc3d8a6573U,
  0xbdfb5c563dc73868U, 0x3d8e62cdbd83a42aU, 0x3d3f51aebe31698bU, 0xbd3e54cd3e734deaU,
  0x3d9a2d0d3d755a30U, 0xbd9a69b3bc157d12U, 0x3ce08db6bedf73c2U, 0x3e056ca1beb8ce4bU,
  0xbd3e893cbd9c9feaU, 0x3e7abf753e54a24eU, 0xbbe2e72fba85be22U, 0xbdd39668ba823d68U,
  0x3df74fd83e5f7579U, 0xbe06e29fbd4e94f6U, 0x3dcde40d3b93d874U, 0xbdcabe2fbda3d3d5U,
  0xbe69c172be44988aU, 0xbd061f22bdf8404eU, 0xbd8ea203be85598bU, 0xbda6af8f3c9d045cU,
  0xbd7b3693bdb6aba2U, 0x3dd01156be0603eaU, 0x3cb7720e3e0de1ceU, 0xbc5d88fbbe1043b1U,
  0x3e896990bed31908U, 0xbd1d97c5be0f97ccU, 0x3e4c5a7b3e022153U, 0x3d3f3ee2be2434cdU,
  0xbdf2a5babe23ef07U, 0xbd4b6750be22fa3dU, 0xbd0d7422bd81edb8U, 0xbe71fec03c3e645fU,
  0xbe5b6d6d3d7e588cU, 0xba4ed9e8bc9b5f31U, 0xbd869890bdfab83dU, 0xbe6111833e8a4732U,
  0x3dcabcd43e841fc7U, 0xbd314e883e9aa874U, 0x3e390cf53dddd8c3U, 0xbe4bf8633d9ead92U,
  0xbe439515bdc3a608U, 0x3c9ee6d2b95c74f8U, 0xbe6db4493e1616e7U, 0xbd7d30c83d72a693U,
  0xbd8ef8bf3e90efaeU, 0xbe25958a3d467605U, 0xbea4526a3d85bd84U, 0x3c8a09cdbd182d66U,
  0x3e28ce263ddf3205U, 0xbeae3cfcb9e3ff27U, 0x3e5e67c5bdb22f66U, 0x3e59cf8f3e4b05f1U,
  0x3e6231593e09faefU, 0x3dec3a34bed46de1U, 0xbdebfe753d59df2fU, 0x3e091af5bdf5732fU,
  0x3e0f07873ce5b173U, 0x3d84069abd654249U, 0xbde6c9acbe3c4a56U, 0xbe79aae6beb98f3cU,
  0x3e2947103dd1bd40U, 0x3d7703913de75b3fU, 0xbe204f64bd200e40U, 0xbc3dff483dc9a388U,
  0xbe052d633e8ac316U, 0xbe0c28ac3e443baaU, 0xbd4f7baf3d595c04U, 0xbe4df9353d5fe401U,
  0x3bab2c7dbd32a643U, 0x3cec0397bddebb5dU, 0x3dfdb0643d8a030cU, 0xbe27b81fbe05643fU,
  0x38f2d0683d0b7d75U, 0xbc5e164a3df17f0fU, 0x3e717ed83e812703U, 0x3e35dbc6bdee1608U,
  0x3e25e69f3d1214d8U, 0x3e2e2a4ebe1495b4U, 0xbbc4fba0be894419U, 0x3d596eed3dd563f1U,
  0xbe5542183e606d22U, 0xbe813a2fbd5c7b90U, 0x3e5ab7d63e304099U, 0xbe7965bebe45ec0cU,
  0xbdd730a4bec4f949U, 0xbd0aac6b3d599ee4U, 0x3e2245b3be663f00U, 0xbe007472bdefd2f4U,
